#version: 0.2
r a
P a
p h
g ra
Pa ra
gra ph
graph ></w>
Para graph></w>
< Paragraph></w>
2 0
记 者</w>
20 1
中 国</w>
公 司</w>
一 个</w>
没 有</w>
工 作</w>
1 0
人 员</w>
自 己</w>
表 示</w>
进 行</w>
目 前</w>
已 经</w>
我 们</w>
0 0</w>
发 现</w>
他 们</w>
1 9
孩 子</w>
调 查</w>
发 生</w>
问 题</w>
可 能</w>
时 间</w>
警 方</w>
部 门</w>
政 府</w>
现 场</w>
情 况</w>
男 子</w>
医 院</w>
20 0
1 1
民 警</w>
相 关</w>
1 2
今 年</w>
报 道</w>
可 以</w>
市 场</w>
出 现</w>
这 个</w>
通 过</w>
企 业</w>
201 5
北 京</w>
因 为</w>
开 始</w>
国 家</w>
发 布</w>
1 0</w>
其 中</w>
先 生</w>
显 示</w>
认 为</w>
学 生</w>
第 一</w>
介 绍</w>
书 记</w>
7 月</w>
部 分</w>
201 4
要 求</w>
当 时</w>
小 时</w>
管 理</w>
消 息</w>
3 0
了 解</w>
分 钟</w>
5 月</w>
如 果</w>
下 午</w>
人 民
经 济</w>
6 月</w>
美 国</w>
这 些</w>
同 时</w>
告 诉</w>
法 院</w>
安 全</w>
电 话</w>
发 展</w>
影 响</w>
什 么</w>
正 在</w>
一 些</w>
看 到</w>
现 在</w>
信 息</w>
规 定</w>
犯 罪</w>
一 直</w>
活 动</w>
方 面</w>
事 故</w>
行 为</w>
女 士</w>
大 学</w>
2 0</w>
公 安
中 心</w>
根 据</w>
组 织</w>
银 行</w>
0 0
2014 年</w>
其 他</w>
网 友</w>
当 地</w>
对 于</w>
这 样</w>
- 0
1 5
之 后</w>
由 于</w>
媒 体</w>
手 机</w>
项 目</w>
8 月</w>
有 关</w>
需 要</w>
单 位</w>
建 设</w>
3 年</w>
左 右</w>
学 校</w>
社 会</w>
严 重</w>
地 区</w>
随 后</w>
上 午</w>
城 市</w>
接 受</w>
儿 子</w>
还 有</w>
投 资</w>
主 要</w>
昨 日</w>
提 供</w>
案 件</w>
女 儿</w>
处 理</w>
主 任</w>
1 .
以 及</w>
造 成</w>
女 子</w>
机 关</w>
4 月</w>
时 候</w>
涉 嫌</w>
还 是</w>
成 为</w>
交 通</w>
去 年</w>
关 系</w>
微 博</w>
死 亡</w>
领 导</w>
中 央</w>
一 起</w>
8 日</w>
但 是</w>
公 安</w>
新 闻</w>
集 团</w>
事 件</w>
希 望</w>
生 活</w>
2015 年</w>
包 括</w>
关 注</w>
第 二</w>
日 本</w>
人 民</w>
1 日</w>
嫌 疑
7 日</w>
全 国</w>
3 日</w>
派 出
服 务</w>
嫌疑 人</w>
按 照</w>
派出 所</w>
为 了</w>
知 道</w>
决 定</w>
干 部</w>
附 近</w>
使 用</w>
进 入</w>
4 日</w>
人 士</w>
价 格</w>
作 为</w>
1 6
不 过</w>
纪 委</w>
国 际</w>
公安 局</w>
继 续</w>
很 多</w>
原 因</w>
村 民</w>
1 2</w>
地 方</w>
妻 子</w>
201 3年</w>
资 金</w>
朋 友</w>
网 络</w>
0 .
机 构</w>
经 过</w>
事 发</w>
负 责
存 在</w>
以 上</w>
一 步</w>
进 一步</w>
负责 人</w>
图 片</w>
州 市</w>
2 .
政 策</w>
联 系</w>
19 9
司 机</w>
标 准</w>
美 元</w>
责 任</w>
过 程</w>
上 海</w>
非 常</w>
父 亲</w>
3 0</w>
医 生</w>
最 后</w>
期 间</w>
今 天</w>
结 果</w>
3 月</w>
老 人</w>
2 年</w>
母 亲</w>
老 师</w>
双 方</w>
注 意</w>
最 终</w>
虽 然</w>
重 要</w>
所 以</w>
有 限
有限 公司</w>
车 辆</w>
0 万</w>
未 来</w>
准 备</w>
提 出</w>
2 5
方 式</w>
增 长</w>
1 1</w>
技 术</w>
视 频</w>
超 过</w>
系 统</w>
预 计</w>
此 前</w>
1 5</w>
实 施</w>
市 民</w>
3 .
父 母</w>
昨 天</w>
这 种</w>
改 革</w>
是 否</w>
出 来</w>
某 某</w>
数 据</w>
应 该</w>
— —</w>
或 者</w>
官 方</w>
2015 -0
业 务</w>
报 警</w>
局 长</w>
突 然</w>
透 露</w>
教 育</w>
居 民</w>
参 加</w>
起 来</w>
无 法</w>
个 人</w>
导 致</w>
市 委</w>
检 查</w>
网 站</w>
比 较</w>
产 品</w>
违 法</w>
持 续</w>
所 有</w>
来 到</w>
家 人</w>
之 前</w>
雷 电</w>
直 接</w>
对 方</w>
依 法</w>
分 别</w>
5 0</w>
法 律</w>
甚 至</w>
找 到</w>
小 区</w>
1 月</w>
公 开</w>
以 来</w>
9 .
收 入</w>
大 家</w>
世 界</w>
获 得</w>
采 访</w>
12 月</w>
比 赛</w>
当 天</w>
4 .
研 究</w>
9 日</w>
报 告</w>
得 到</w>
事 情</w>
计 划</w>
近 日</w>
觉 得</w>
9 月</w>
措 施</w>
会 议</w>
预 警</w>
不 少</w>
公 布</w>
一 定</w>
群 众</w>
完 成</w>
受 伤</w>
2 日</w>
多 次</w>
1 年</w>
女 孩</w>
照 片</w>
专 家</w>
达 到</w>
办 公
工 程</w>
家 属</w>
再 次</w>
接 到</w>
因 此</w>
人民 币</w>
合 作</w>
家 庭</w>
全 部</w>
新 浪</w>
6 日</w>
最 高</w>
8 .
调 整</w>
检 察
汽 车</w>
怎 么</w>
支 持</w>
利 用</w>
立 即</w>
下 来</w>
关 于</w>
环 境</w>
而 且</w>
1 4</w>
… …</w>
11 月</w>
赶 到</w>
公 里</w>
特 别</w>
具 体</w>
生 产</w>
金 融</w>
学 院</w>
代 表</w>
6 .
基 本</w>
丈 夫</w>
微 信</w>
开 展</w>
内 容</w>
1 3</w>
选 择</w>
7 .
过 去</w>
保 护</w>
回 应</w>
执 行</w>
家 长</w>
行 业</w>
201 2年</w>
行 政</w>
广 州</w>
10 月</w>
任 何</w>
采 取</w>
能 力</w>
治 疗</w>
加 强</w>
参 与</w>
4 0</w>
今 日</w>
0 年</w>
1 6</w>
控 制</w>
就 是</w>
离 开</w>
制 度</w>
通 报</w>
来 源</w>
5 .
不 同</w>
官 员</w>
交 警</w>
经 营</w>
凌 晨</w>
后 来</w>
交 易</w>
此 外</w>
增 加</w>
销 售</w>
条 件</w>
成 功</w>
网 上</w>
工 资</w>
晚 上</w>
职 务</w>
宣 布</w>
一 样</w>
来 自</w>
香 港</w>
正 式</w>
回 家</w>
律 师</w>
深 圳</w>
另 外</w>
天 气</w>
这 么</w>
1 8</w>
委 会</w>
乘 客</w>
除 了</w>
解 决</w>
那 么</w>
此 次</w>
2 月</w>
0 00</w>
1 8
意 见</w>
文 化</w>
第 三</w>
必 须</w>
负 责</w>
资 料</w>
消 防</w>
基 金</w>
非 法</w>
同 学</w>
分 析</w>
- 2
连 续</w>
10 0</w>
正 常</w>
经 理</w>
结 束</w>
省 委</w>
19 8
他 人</w>
证 明</w>
检察 院</w>
抓 获</w>
实 现</w>
道 路</w>
有 人</w>
专 业</w>
上 市</w>
旅 游</w>
受 到</w>
能 够</w>
精 神</w>
之 间</w>
研 究
1 7</w>
购 买</w>
帮 助</w>
地 产</w>
妈 妈</w>
8 年</w>
方 案</w>
用 户</w>
如 何</w>
举 报</w>
行 动</w>
位 于</w>
想 到</w>
建 议</w>
科 技</w>
迅 速</w>
明 显</w>
历 史</w>
1 7
办 理</w>
1 4
反 映</w>
酒 店</w>
身 份</w>
明 确</w>
区 域</w>
家 里</w>
9 年</w>
确 定</w>
身 体</w>
范 围</w>
南 京</w>
信 号</w>
0 %</w>
办公 室</w>
及 时</w>
引 发</w>
通 知</w>
不 要</w>
考 虑</w>
一 般</w>
指 出</w>
南 省</w>
月 份</w>
上 述</w>
安 排</w>
南 都</w>
新 网</w>
每 天</w>
李 某</w>
下 降</w>
主 席</w>
担 任</w>
证 券</w>
保 险</w>
警 察</w>
国 内</w>
不 断</w>
黄 色</w>
有 些</w>
大 量</w>
成 立</w>
平 台</w>
申 请</w>
风 险</w>
员 工</w>
20 0</w>
罗 斯</w>
家 中</w>
获 悉</w>
机 场</w>
执 法</w>
老 板</w>
截 至</w>
规 模</w>
资 产</w>
针 对</w>
6 0</w>
2 1</w>
这 里</w>
危 险</w>
王 某</w>
韩 国</w>
体 育</w>
1 3
确 认</w>
新 华
费 用</w>
党 委</w>
办 法</w>
儿 童</w>
常 委</w>
之 一</w>
委 员
阳 市</w>
学 习</w>
刑 事</w>
证 实</w>
处 罚</w>
完 全</w>
属 于</w>
取 得</w>
其 实</w>
此 事</w>
给 予</w>
游 客</w>
201 1年</w>
提 高</w>
机 会</w>
管 理
患 者</w>
方 米</w>
出 租
涉 及</w>
违 纪</w>
事 实</w>
引 起</w>
侦 查</w>
监 控</w>
形 成</w>
张 某</w>
开 发</w>
重 点</w>
00 万</w>
经 常</w>
部 长</w>
1 9</w>
驾 驶</w>
全 面</w>
委员 会</w>
先 后</w>
生 命</w>
支 付</w>
被 告
重 大</w>
赔 偿</w>
飞 机</w>
成 都</w>
然 后</w>
协 议</w>
救 援</w>
产 生</w>
6 年</w>
抢 救</w>
积 极</w>
死 者</w>
只 是</w>
监 管</w>
保 障</w>
水 平</w>
土 地</w>
合 同</w>
晚 报</w>
投 资
公 路</w>
俄 罗斯</w>
天 津</w>
重 庆</w>
前 往</w>
手 术</w>
市 长</w>
基 础</w>
董 事
查 看</w>
大 队</w>
以 下</w>
利 益</w>
分 局</w>
被告 人</w>
医 疗</w>
联 网</w>
7 年</w>
人 大</w>
我 国</w>
同 比</w>
随 着</w>
2 4</w>
于 是</w>
成 员</w>
保 持</w>
拘 留</w>
建 筑</w>
身 上</w>
表 现</w>
价 值</w>
门 口</w>
爆 炸</w>
然 而</w>
推 进</w>
做 好</w>
压 力</w>
应 当</w>
铁 路</w>
面 积</w>
驾 驶
15 日</w>
综 合</w>
以 后</w>
只 能</w>
确 实</w>
来 说</w>
目 标</w>
东 西</w>
赛 季</w>
资 源</w>
监 督</w>
四 川</w>
设 备</w>
证 据</w>
感 觉</w>
举 行</w>
全 球</w>
带 来</w>
山 东</w>
稳 定</w>
徒 刑</w>
最 近</w>
务 员</w>
立 案</w>
不 仅</w>
规 划</w>
建 立</w>
登 记</w>
股 份</w>
作 出</w>
展 开</w>
期 徒刑</w>
一 下</w>
离 婚</w>
出 生</w>
整 个</w>
联 合</w>
实 际</w>
30 日</w>
禁 区</w>
房 子</w>
害 人</w>
有 的</w>
长 期</w>
平 均</w>
季 度</w>
面 对</w>
日 前</w>
说 法</w>
领 先</w>
人民 法院</w>
广 东</w>
互 联网</w>
审 理</w>
回 来</w>
贷 款</w>
违 规</w>
处 分</w>
初 步</w>
20 日</w>
健 康</w>
10 日</w>
几 乎</w>
5 %</w>
质 量</w>
娱 乐</w>
上 涨</w>
中 午</w>
2 8日</w>
共 同</w>
西 省</w>
判 处</w>
作 用</w>
委 员</w>
方 向</w>
京 报</w>
5 00</w>
结 婚</w>
减 少</w>
司 法</w>
得 知</w>
都 市</w>
线 索</w>
i n
十 分</w>
喜 欢</w>
距 离</w>
提 醒</w>
防 范</w>
认 识</w>
设 计</w>
公 众</w>
过 来</w>
夫 妻</w>
国 务
日 期</w>
高 速</w>
武 汉</w>
判 决</w>
高 考</w>
领 域</w>
鉴 定</w>
中 新网</w>
拒 绝</w>
本 报</w>
考 试</w>
小 学</w>
职 责</w>
据 悉</w>
7 0</w>
5 日</w>
e e
食 品</w>
公 共</w>
损 失</w>
位 置</w>
解 释</w>
5 万</w>
各 种</w>
英 国</w>
201 0年</w>
坚 持</w>
住 房</w>
只 有</w>
故 意</w>
同 意</w>
避 免</w>
产 业</w>
5 年</w>
材 料</w>
城 区</w>
房 地产</w>
如 此</w>
陈 某</w>
新 京报</w>
2 5</w>
浙 江</w>
股 票</w>
担 心</w>
2 9日</w>
12 日</w>
现 金</w>
认 定</w>
具 有</w>
平 时</w>
记 录</w>
清 楚</w>
1 7日</w>
成 本</w>
河 南</w>
容 易</w>
设 施</w>
回 到</w>
自 治
动 车</w>
身 亡</w>
气 象
至 少</w>
2 7日</w>
1 8日</w>
而 是</w>
2 2日</w>
里 面</w>
国务 院</w>
腐 败</w>
统 计</w>
人 口</w>
同 样</w>
污 染</w>
11 日</w>
启 动</w>
2 6日</w>
状 态</w>
落 实</w>
愿 意</w>
防 御</w>
毕 业</w>
2 3日</w>
轿 车</w>
肯 定</w>
19 日</w>
终 于</w>
融 资</w>
湖 南</w>
为 什么</w>
投资 者</w>
主 动</w>
16 日</w>
符 合</w>
电 影</w>
很 快</w>
开 发
1 4日</w>
询 问</w>
遭 遇</w>
25 日</w>
2 4日</w>
9 9.
2 1日</w>
阶 段</w>
现 象</w>
打 电话</w>
总 经理</w>
移 动</w>
机 制</w>
农 村</w>
有 期徒刑</w>
教 育
内 部</w>
拥 有</w>
台 湾</w>
数 量</w>
比 例</w>
并 且</w>
房 屋</w>
此 后</w>
化 名</w>
董事 长</w>
严 格</w>
当 晚</w>
听 到</w>
出租 车</w>
许 多</w>
1 3日</w>
年 轻</w>
近 期</w>
党 组</w>
1 -
球 队</w>
如 今</w>
北 京
构 成</w>
. .
社 区</w>
大 部分</w>
消 费</w>
每 年</w>
意 外</w>
有 效</w>
打 工</w>
批 准</w>
公 告</w>
寻 找</w>
召 开</w>
平 方米</w>
程 度</w>
越 来
越来 越</w>
比 如</w>
程 序</w>
2 2</w>
东 省</w>
金 额</w>
承 担</w>
4 年</w>
原 来</w>
日 报</w>
受 贿</w>
直 到</w>
2 3
朝 鲜</w>
小 孩</w>
只 要</w>
政 治</w>
出 去</w>
任 务</w>
. c
商 业</w>
见 到</w>
周 边</w>
女 性</w>
8 0</w>
篮 板</w>
曾 经</w>
电 梯</w>
优 势</w>
车 站</w>
你 们</w>
收 到</w>
处 于</w>
恢 复</w>
尽 管</w>
中 学</w>
统 一</w>
用 于</w>
办 案</w>
每 个</w>
教 师</w>
广 场</w>
承 认</w>
集 中</w>
不 得</w>
女 生</w>
违 反</w>
苹 果</w>
根 本</w>
资 本</w>
利 亚</w>
公 交</w>
通 讯
2 3</w>
类 似</w>
新 闻
以 前</w>
说 明</w>
遇 到</w>
河 北</w>
需 求</w>
暴 雨</w>
职 工</w>
变 化</w>
当 年</w>
工 人</w>
南 方</w>
仍 然</w>
做 出</w>
作 案</w>
战 略</w>
品 牌</w>
普 通</w>
球 员</w>
男 孩</w>
公 交
依 然</w>
努 力</w>
心 理</w>
广 西</w>
为 何</w>
江 苏</w>
师 傅</w>
巨 大</w>
强 调</w>
航 空</w>
指 南</w>
事 业</w>
更 加</w>
回 忆</w>
石 油</w>
行 驶</w>
功 能</w>
幼 儿
女 友</w>
杭 州</w>
邻 居</w>
扩 大</w>
成 绩</w>
时 报</w>
200 9年</w>
当 场</w>
户 外</w>
爸 爸</w>
多 数</w>
幼儿 园</w>
考 生</w>
部 队</w>
最 新</w>
客 户</w>
股 市</w>
当 日</w>
身 份
a n
曝 光</w>
领 导
房 间</w>
文 件</w>
推 动</w>
电 子</w>
公 园</w>
保 安</w>
气象 台</w>
常 委会</w>
地 铁</w>
早 上</w>
身份 证</w>
政 协</w>
取 消</w>
刘 某</w>
发 表</w>
账 户</w>
o n
施 工</w>
专 门</w>
模 式</w>
配 合</w>
西 安</w>
重 新</w>
伤 害</w>
空 气</w>
衣 服</w>
完 善</w>
人 数</w>
半 年</w>
经 历</w>
军 事</w>
卫 生</w>
云 南</w>
紧 急</w>
年 龄</w>
股 东</w>
一 边</w>
30 分</w>
意 识</w>
多 少</w>
我 市</w>
自治 区</w>
提 升</w>
9 0</w>
质 疑</w>
电 视
不 好</w>
不 再</w>
上 班</w>
通讯 员</w>
毒 品</w>
.. .</w>
e r</w>
200 8年</w>
此 时</w>
打 击</w>
江 西</w>
利 润</w>
一 审</w>
尽 量</w>
地 点</w>
地 上</w>
大 风</w>
情 绪</w>
自 杀</w>
巡 视</w>
灾 害</w>
市 政府</w>
财 经</w>
作 业</w>
以 为</w>
介 入</w>
财 产</w>
相 对</w>
运 营</w>
山 西</w>
货 车</w>
别 人</w>
2 万</w>
消 费
推 出</w>
印 度</w>
高 度</w>
指 数</w>
职 业</w>
高 速
公交 车</w>
财 政</w>
原 文</w>
予 以</w>
失 踪</w>
4 0
2 8
节 目</w>
生 意</w>
面 临</w>
2 %</w>
威 胁</w>
新华 社</w>
创 新</w>
院 长</w>
游 戏</w>
空 间</w>
名 单</w>
监 会</w>
工 业</w>
发 行</w>
3 00</w>
快 速</w>
系 列</w>
出 台</w>
本 人</w>
还 要</w>
广 告</w>
退 休</w>
世 纪</w>
公 务员</w>
路 段</w>
改 变</w>
动 物</w>
结 构</w>
同 事</w>
知 情</w>
基 地</w>
一 切</w>
照 顾</w>
县 委</w>
收 购</w>
查 处</w>
制 定</w>
排 名</w>
校 长</w>
2 4
3 %</w>
图 例</w>
收 费</w>
打 开</w>
拍 摄</w>
文 章</w>
7 %</w>
刚 刚</w>
尸 体</w>
市 区</w>
相 信</w>
到 底</w>
相 比</w>
子 女</w>
加 入</w>
殴 打</w>
规 范</w>
手 段</w>
小 于</w>
困 难</w>
怀 疑</w>
免 费</w>
5 0
车 上</w>
披 露</w>
工 作
遭 到</w>
留 下</w>
第 四</w>
创 业</w>
1 %</w>
因 素</w>
养 老</w>
不 足</w>
制 造</w>
3 5</w>
教 授</w>
尚 未</w>
实 行</w>
物 品</w>
速 度</w>
宣 传</w>
6 %</w>
蒙 古</w>
郑 州</w>
那 个</w>
状 况</w>
条 例</w>
感 到</w>
2 8</w>
运 行</w>
降 低</w>
发 出</w>
达 成</w>
应 急</w>
详 细</w>
12 0</w>
宣 传
各 地</w>
弟 弟</w>
投 入</w>
审 查</w>
处 置</w>
声 明</w>
不 久</w>
卫 生
软 件</w>
专 项</w>
大 约</w>
停 止</w>
海 军</w>
核 实</w>
业 主</w>
纷 纷</w>
协 调</w>
提 前</w>
场 所</w>
一 旦</w>
赶 紧</w>
在 线</w>
相 当</w>
手 续</w>
官 兵</w>
未 能</w>
至 今</w>
加 上</w>
密 切</w>
维 护</w>
: 00</w>
编 辑</w>
新 疆</w>
文 物</w>
俱 乐
一 路</w>
3 1</w>
队 员</w>
安 徽</w>
带 走</w>
传 统</w>
加 大</w>
纪 律</w>
正 是</w>
关 键</w>
2 6</w>
法 庭</w>
俱乐 部</w>
出 口</w>
人 们</w>
竞 争</w>
训 练</w>
截 图</w>
1 万</w>
检 测</w>
小 组</w>
一 点</w>
并 非</w>
协 会</w>
北 省</w>
下 跌</w>
尤 其</w>
19 7
突 破</w>
国 有</w>
帮 忙</w>
交 流</w>
摩 托
昆 明</w>
盗 窃</w>
力 量</w>
无 效</w>
合 理</w>
从 事</w>
毫 米</w>
高 级</w>
她 们</w>
疑 似</w>
助 攻</w>
老 家</w>
主 场</w>
法 国</w>
.c o
车 主</w>
操 作</w>
大 型</w>
观 察</w>
及 其</w>
拨 打</w>
8 %</w>
湖 北</w>
团 伙</w>
玻 璃</w>
态 度</w>
20 00</w>
重 视</w>
景 区</w>
北京 市</w>
内 蒙古</w>
伤 者</w>
3 -
见 度</w>
之 下</w>
开 除</w>
至 于</w>
此 案</w>
能 见度</w>
现 代</w>
纠 纷</w>
暴 力</w>
确 保</w>
降 水</w>
竟 然</w>
4 %</w>
联 赛</w>
路 口</w>
目 的</w>
首 先</w>
证 监会</w>
爆 料</w>
经 验</w>
街 道</w>
保 证</w>
发 挥</w>
限 制</w>
短 信</w>
比 分</w>
路 边</w>
德 国</w>
年 人</w>
真 正</w>
外 出</w>
开 放</w>
一 方面</w>
冠 军</w>
时 代</w>
10 万</w>
战 争</w>
起 诉</w>
开 车</w>
低 于</w>
经 济
城 管</w>
转 移</w>
罚 款</w>
特 殊</w>
红 色</w>
简 单</w>
名 字</w>
多 年</w>
力 度</w>
2 7</w>
一 度</w>
房 产</w>
意 味
央 视</w>
旅 客</w>
2 -
运 输</w>
随 即</w>
警 告</w>
当 事
队 长</w>
注 册</w>
全 市</w>
维 持</w>
禁 止</w>
政 治
支 队</w>
整 体</w>
2 6
接 近</w>
矛 盾</w>
击 者</w>
3 万</w>
指 挥</w>
最 低</w>
工 具</w>
高速 公路</w>
商 品</w>
意味 着</w>
国 家
尽 快</w>
预 期</w>
电 脑</w>
下 去</w>
男 友</w>
原 则</w>
救 治</w>
中 国
采 用</w>
人 群</w>
3 1日</w>
旁 边</w>
10 00</w>
法 官</w>
中 共</w>
承 诺</w>
新 区</w>
吃 饭</w>
事 后</w>
促 进</w>
逐 渐</w>
充 分</w>
10 0.
药 品</w>
2 9</w>
陕 西</w>
7 -
火 灾</w>
感 情</w>
近 平</w>
居 住</w>
对 象</w>
消费 者</w>
5 亿</w>
摩托 车</w>
亲 属</w>
9 %</w>
身 边</w>
华 商</w>
大 会</w>
有 所</w>
依 据</w>
涉 案</w>
共 有</w>
上 升</w>
自 称</w>
肇 事</w>
济 南</w>
出 场</w>
0 8
允 许</w>
夫 妇</w>
之 外</w>
诈 骗</w>
生 育</w>
沈 阳</w>
当事 人</w>
青 年</w>
监 狱</w>
马 上</w>
火 箭</w>
工 厂</w>
列 车</w>
东 莞</w>
航 班</w>
沟 通</w>
总 统</w>
黑 龙
东 方</w>
总 理</w>
高 校</w>
命 中</w>
补 贴</w>
婚 姻</w>
共 计</w>
声 音</w>
部 署</w>
秘 书
强 制</w>
提 起</w>
垃 圾</w>
商 报</w>
顺 利</w>
长 沙</w>
反 应</w>
军 区</w>
看 来</w>
体 系</w>
目 击者</w>
似 乎</w>
电 视</w>
放 弃</w>
效 果</w>
驾驶 员</w>
唯 一</w>
否 认</w>
发 放</w>
理 解</w>
临 时</w>
报 案</w>
改 造</w>
冲 突</w>
招 生</w>
地 震</w>
自 然</w>
搜 索</w>
分 子</w>
吸 毒</w>
集 体</w>
即 将</w>
咨 询</w>
异 常</w>
2 7
大 学生</w>
疾 病</w>
抢 劫</w>
自 由</w>
被 害人</w>
发 布
科 学</w>
拆 迁</w>
中 方</w>
紧 张</w>
病 人</w>
行 车</w>
南 海</w>
可 是</w>
指 导</w>
村 里</w>
２ ０
海 外</w>
难 以</w>
8 万</w>
奶 奶</w>
言 人</w>
那 些</w>
形 式</w>
告 知</w>
涨 幅</w>
决 赛</w>
到 达</w>
所 谓</w>
小 姐</w>
方 法</w>
团 队</w>
合 法</w>
便 利</w>
新闻 网</w>
交 代</w>
福 建</w>
服 务
防 止</w>
山 市</w>
妇 女</w>
厘 米</w>
4 5</w>
下 车</w>
黄 某</w>
导 弹</w>
同 志</w>
清 理</w>
方 便</w>
等 待</w>
内 地</w>
持 有</w>
出 席</w>
存 款</w>
审 批</w>
不 错</w>
广 东省</w>
福 州</w>
e r
资 格</w>
组 成</w>
追 究</w>
养 老
200 7年</w>
气 温</w>
万 亿</w>
加 快</w>
能 源</w>
江 省</w>
高 铁</w>
农 业</w>
听 说</w>
应 用</w>
去 世</w>
原 本</w>
路 上</w>
杨 某</w>
协 商</w>
道 歉</w>
足 球</w>
线 路</w>
相 应</w>
2 9
秘书 长</w>
每 日</w>
高 温</w>
核 心</w>
周 围</w>
秩 序</w>
主 管</w>
3 2</w>
补 偿</w>
智 能</w>
每 月</w>
指 标</w>
年 度</w>
北 部</w>
大 幅</w>
故 事</w>
回 复</w>
发 言人</w>
提 到</w>
变 成</w>
设 立</w>
落 马</w>
培 训</w>
落 后</w>
厦 门</w>
a t
判 断</w>
无 奈</w>
该 案</w>
对 外</w>
发布 会</w>
黄 金</w>
头 部</w>
试 图</w>
交 易
6 -
进 展</w>
环 保</w>
权 利</w>
十 几</w>
必 要</w>
休 息</w>
物 业</w>
诉 讼</w>
菲 律
安 装</w>
当 前</w>
昨 晚</w>
实 际
杀 人</w>
有 限</w>
宿 舍</w>
在 内</w>
30 00</w>
9 时</w>
4 00</w>
讨 论</w>
3 3</w>
贵 州</w>
白 色</w>
利 率</w>
渠 道</w>
工 地</w>
201 5</w>
死 刑</w>
实际 上</w>
4 -
中 级</w>
巡 视
试 点</w>
哈 尔
停 车
菲律 宾</w>
时 期</w>
计 算</w>
5 -
鼓 励</w>
受 贿
10 时</w>
检 察</w>
超 市</w>
受 害人</w>
4 万</w>
贸 易</w>
百 分
哥 哥</w>
5 000</w>
200 6年</w>
春 节</w>
0 9</w>
婴 儿</w>
西 部</w>
深 入</w>
查 询</w>
外 国</w>
股 权</w>
指 控</w>
快 报</w>
即 使</w>
对 手</w>
新华 网</w>
掌 握</w>
协 助</w>
出 事</w>
人 家</w>
抓 捕</w>
代 表
陆 续</w>
回 答</w>
亚 洲</w>
6 万</w>
一 致</w>
全 力</w>
财 务</w>
逮 捕</w>
管理 局</w>
年 代</w>
参 考</w>
人民 政府</w>
2014 -
打 算</w>
长 江</w>
通 道</w>
暂 时</w>
失 去</w>
11 0</w>
欧 洲</w>
当 中</w>
和 平</w>
领导 人</w>
南 部</w>
妹 妹</w>
携 带</w>
同 期</w>
监 察
兰 州</w>
意 义</w>
当 然</w>
作 品</w>
累 计</w>
增 速</w>
号 码</w>
主 义</w>
设 置</w>
背 后</w>
运 动</w>
治 理</w>
法 规</w>
山 区</w>
不 得
3 7</w>
百 万</w>
控 股</w>
黑 色</w>
生 态</w>
理 由</w>
始 终</w>
资 讯</w>
返 回</w>
老 婆</w>
组 织
接 触</w>
兄 弟</w>
请 求</w>
情 节</w>
怀 孕</w>
所 在</w>
全 省</w>
逐 步</w>
升 级</w>
驾 车</w>
就 业</w>
宾 馆</w>
3 6</w>
0 亿</w>
暂 停</w>
20 万</w>
强 奸</w>
吸 引</w>
年 级</w>
上 去</w>
签 订</w>
本 次</w>
普 遍</w>
东 部</w>
值 得</w>
争 议</w>
恒 大</w>
千 万</w>
走 访</w>
大 门</w>
现 实</w>
央 行</w>
B A</w>
支 出</w>
差 距</w>
农 民</w>
中 院</w>
住 院</w>
岗 位</w>
姐 姐</w>
心 里</w>
乘 坐</w>
上 半年</w>
案 组</w>
年 底</w>
评 论</w>
开发 商</w>
民 政
天 津
住 宅</w>
上 面</w>
财 物</w>
债 务</w>
权 力</w>
评 估</w>
2 亿</w>
工 商</w>
货 币</w>
看 见</w>
结 合</w>
安 市</w>
o r
年 来</w>
表 明</w>
之 中</w>
学 家</w>
传 播</w>
最 佳</w>
武 器</w>
民 众</w>
前 后</w>
突 出</w>
浏 览</w>
教育 局</w>
不 明</w>
停 车</w>
3 9
环 保
基 层</w>
仅 仅</w>
少 年</w>
3 6
发 改
泰 国</w>
皇 马</w>
认 真</w>
官 网</w>
自 身</w>
电视 台</w>
众 多</w>
能 性</w>
而 言</w>
安 全
这 家</w>
板 块</w>
享 受</w>
说 话</w>
大 连</w>
近 年来</w>
本 节</w>
整 改</w>
批 评</w>
欢 迎</w>
攻 击</w>
境 内</w>
感 谢</w>
总 局</w>
在 家</w>
装 备</w>
大 道</w>
专 案组</w>
越 南</w>
监 测</w>
第 十
情 人</w>
河 南省</w>
形 象</w>
破 坏</w>
出 售</w>
看 看</w>
3 5
反 对</w>
人 才</w>
200 5年</w>
地 面</w>
3 8
坚 决</w>
不 满</w>
常 务</w>
11 时</w>
1 亿</w>
温 州</w>
P h
背 景</w>
救 助</w>
角 度</w>
手 中</w>
a r
股 价</w>
围 观</w>
加 盟</w>
开 庭</w>
委 托</w>
建 成</w>
独 立</w>
主 体</w>
4 5
可 能性</w>
行 人</w>
胜 利</w>
不 幸</w>
简 称</w>
中 间</w>
拿 下</w>
广 大</w>
上 前</w>
国 企</w>
财 政
良 好</w>
责 任
自 行车</w>
伤 亡</w>
百 姓</w>
谈 判</w>
排 除</w>
贿 赂</w>
大 概</w>
隐 患</w>
海 南</w>
成 交</w>
失 联</w>
3 4</w>
日 子</w>
受贿 罪</w>
飞 行</w>
真 实</w>
强 烈</w>
处 长</w>
做 法</w>
呼 吸</w>
工 程
评 价</w>
3 7
数 字</w>
4 8</w>
实 习
一 半</w>
车 祸</w>
2 2
发改 委</w>
8 -
亲 戚</w>
银 行
消 防
欧 元</w>
百分 点</w>
境 外</w>
共 产
中 年</w>
8 时</w>
纪 检</w>
移 送</w>
小 伙</w>
人 物</w>
进 攻</w>
利 于</w>
其 余</w>
爷 爷</w>
民 族</w>
大 多数</w>
遗 体</w>
出 门</w>
解 放
不 知</w>
每 次</w>
细 节</w>
军 队</w>
症 状</w>
称 为</w>
宣 判</w>
为 此</w>
积 金</w>
w w
公 积金</w>
门 前</w>
事 项</w>
进 球</w>
哪 里</w>
环 节</w>
作 战</w>
周 末</w>
澳 大
查 明</w>
外 面</w>
这 时</w>
改 善</w>
警 车</w>
山 西省</w>
国 外</w>
被 告</w>
户 籍</w>
短 时</w>
实习 生</w>
0 7
首 席</w>
杀 害</w>
所 长</w>
大 妈</w>
t h
标 题</w>
v i
幸 福</w>
四 川
为 由</w>
治 安</w>
中 队</w>
复 杂</w>
Ph on
见 面</w>
再 度</w>
今 后</w>
劳 动</w>
公 款</w>
厕 所</w>
旅 游
总 裁</w>
跌 幅</w>
未 成
文 明</w>
客 车</w>
县 城</w>
强 行</w>
估 计</w>
降 雨</w>
诊 断</w>
女 童</w>
地 下</w>
制 作</w>
公 诉</w>
高 中</w>
权 益</w>
老 公</w>
法 制</w>
广 泛</w>
预 算</w>
事 实
机 动车</w>
城 镇</w>
青 岛</w>
满 足</w>
本 来</w>
观 众</w>
投 诉</w>
19 6
澳大 利亚</w>
党 员</w>
学 历</w>
总 体</w>
专 车</w>
3 8</w>
袭 击</w>
辽 宁</w>
聊 天</w>
事实 上</w>
火 车站</w>
贡 献</w>
安 倍</w>
不 见</w>
201 4</w>
途 中</w>
接 着</w>
公 斤</w>
往 往</w>
.co m</w>
公安 部</w>
0 1</w>
电 动车</w>
提 交</w>
年 轻
求 助</w>
队 伍</w>
大 众</w>
上 学</w>
0 9
访 问</w>
省 长</w>
前 来</w>
i l
自 首</w>
合 肥</w>
起 火</w>
趋 势</w>
教 练</w>
思 想</w>
s t
测 试</w>
表 达</w>
电 力</w>
得 分</w>
巡视 组</w>
业 绩</w>
合 并</w>
公 民</w>
户 口</w>
元 /
病 情</w>
外 地</w>
射 门</w>
3 亿</w>
1 时</w>
举 办</w>
那 里</w>
福 利</w>
宣传 部</w>
云 南省</w>
东 北</w>
邀 请</w>
有 望</w>
微 信号</w>
商 场</w>
半 场</w>
海 市</w>
彩 票</w>
集 团
究 竟</w>
白 天</w>
恐 怖</w>
单 独</w>
习 惯</w>
3 9</w>
公安 厅</w>
虚 假</w>
纪 录</w>
明 星</w>
收 益</w>
外 界</w>
各 类</w>
巨 额</w>
没 收</w>
关 心</w>
中 毒</w>
不 管</w>
银行 卡</w>
上 诉</w>
江 苏
晨 报</w>
希 腊</w>
供 述</w>
男 性</w>
应 对</w>
观 看</w>
省 级</w>
名 义</w>
i Phon
刑 拘</w>
200 4年</w>
男 童</w>
r o
释 放</w>
收 取</w>
缺 乏</w>
分 析
录 取</w>
后 面</w>
马 路</w>
腾 讯</w>
实 在</w>
4 6</w>
Q Q</w>
反 腐</w>
养老 金</w>
为 主</w>
世 界
阿 里
整 治</w>
4 1</w>
年轻 人</w>
同 一</w>
第 五</w>
感 染</w>
引 导</w>
审 计</w>
仪 式</w>
上 网</w>
5 8</w>
社 会
e n
营 业</w>
嫌 犯</w>
动 作</w>
呼 吁</w>
E O</w>
辖 区</w>
夜 间</w>
人民 网</w>
亏 损</w>
进 口</w>
杀 人
u r
赶 赴</w>
眼 睛</w>
规 则</w>
检 验</w>
突 发</w>
它 们</w>
轨 道</w>
百 度</w>
房 价</w>
头 球</w>
环 球</w>
成 长</w>
到 位</w>
客 场</w>
动 力</w>
人 均</w>
履 行</w>
联 合
各 项</w>
共产 党</w>
广 州市</w>
陷 入</w>
具 备</w>
泉 州</w>
进 去</w>
短 期</w>
大 陆</w>
有 点</w>
广 播</w>
后 果</w>
挑 战</w>
南 昌</w>
病 毒</w>
左 侧</w>
害 怕</w>
华 西</w>
交 给</w>
5 0万</w>
姆 斯</w>
从 而</w>
讲 述</w>
橙 色</w>
想 法</w>
庭 审</w>
展 示</w>
创 业
任 职</w>
台 风</w>
体 制</w>
财 富</w>
做 到</w>
中 纪委</w>
4 4</w>
错 误</w>
面 前</w>
中 华
覆 盖</w>
姓 名</w>
周 年</w>
阳 县</w>
空 军</w>
采 购</w>
点 击</w>
深 圳
著 名</w>
自 主</w>
指 挥
剩 下</w>
行 政
西 班
等 于</w>
i t
知 识</w>
本 身</w>
5 5</w>
10 .
分析 师</w>
巴 巴</w>
2014 -0
签 署</w>
宝 宝</w>
19 5
粉 丝</w>
立 方米</w>
海 上</w>
地 位</w>
200 3年</w>
就 要</w>
四川 省</w>
事 务
中国 队</w>
锁 定</w>
巴 马</w>
共 和
论 坛</w>
民 间</w>
抓 住</w>
0 6
现 有</w>
宁 波</w>
中 小
澎 湃</w>
湖 南省</w>
冰 雹</w>
石 家
l e</w>
局 部</w>
曼 联</w>
危 害</w>
跟 着</w>
有 着</w>
值 班</w>
0 7</w>
出 行</w>
4 亿</w>
重 伤</w>
西 亚</w>
关 闭</w>
8 00</w>
少 林
研究 生</w>
女 人</w>
组 长</w>
4 2</w>
音 乐</w>
开发 区</w>
2. 5</w>
逃 跑</w>
新 增</w>
婆 婆</w>
固 定</w>
结 冰</w>
高 层</w>
各 级</w>
0 3</w>
本 地</w>
乡 镇</w>
省 份</w>
意 思</w>
开 通</w>
住 户</w>
的 确</w>
右 侧</w>
7 时</w>
4 9
自 家</w>
大 多</w>
几 十</w>
法 定</w>
市 场
江 西省</w>
危 机</w>
分 手</w>
30 万</w>
深圳 市</w>
对 话</w>
迎 来</w>
导 演</w>
4 9</w>
有 时</w>
形 势</w>
睡 觉</w>
急 救</w>
强 化</w>
电 信</w>
创 造</w>
保 护
高 管</w>
体 现</w>
接 待</w>
转 发</w>
河 北省</w>
大 于</w>
交 通
案 发</w>
反 而</w>
5 1</w>
4 7</w>
证 件</w>
幅 度</w>
不 良</w>
U b
航 母</w>
纳 入</w>
抵 达</w>
国 土</w>
0 5</w>
放 在</w>
彻 底</w>
一 季度</w>
激 动</w>
大 楼</w>
观 点</w>
明 年</w>
正 当</w>
搜 救</w>
公 务</w>
下 滑</w>
纪 念</w>
伙 伴</w>
缴 纳</w>
深 化</w>
5 2</w>
审 核</w>
增 强</w>
焦 点</w>
人 生</w>
不 能</w>
救 护
区 委</w>
较 为</w>
精 彩</w>
快 讯</w>
业 内
吉 林
卖 淫</w>
业内 人士</w>
一 带</w>
拆 除</w>
转 型</w>
8 亿</w>
自 动</w>
山 东省</w>
党 籍</w>
行 情</w>
男 女</w>
别 墅</w>
独 自</w>
一 家</w>
朋 友
意 大
否 则</w>
券 商</w>
代 理</w>
N BA</w>
撤 销</w>
博 物
阿 尔
年 初</w>
经 营
其 间</w>
信 心</w>
0 -
少林 寺</w>
空 中</w>
15 0</w>
画 面</w>
时 刻</w>
失 误</w>
7 万</w>
都 市
打 造</w>
Ub er</w>
赵 某</w>
损 害</w>
主 持</w>
拍 卖</w>
巴 萨</w>
骨 折</w>
苏 州</w>
或 许</w>
授 权</w>
在 于</w>
该 校</w>
吉 林</w>
花 费</w>
5 9</w>
调 查
石 化</w>
生 物</w>
周 某</w>
待 遇</w>
公 职</w>
一 共</w>
演 员</w>
明 天</w>
摄 影</w>
巴 西</w>
1 .</w>
4 3</w>
综 合
武 装</w>
城 乡</w>
谋 取</w>
流 量</w>
奖 励</w>
制 服</w>
相 继</w>
大 爷</w>
合 格</w>
严 肃</w>
男 生</w>
的 话</w>
数 额</w>
姑 娘</w>
记 得</w>
海 域</w>
消 失</w>
2 .</w>
武 警</w>
首 发</w>
补 充</w>
10 0万</w>
首 都</w>
哪 些</w>
通 信</w>
期 待</w>
显 得</w>
出 具</w>
车 子</w>
o n</w>
车 道</w>
5 4</w>
致 电</w>
P M
慢 慢</w>
刺 激</w>
退 出</w>
运 营
西班 牙</w>
男 人</w>
吴 某</w>
党 内</w>
个 别</w>
频 道</w>
营 业
显 然</w>
传 闻</w>
义 务</w>
熟 悉</w>
7 亿</w>
知 名</w>
公 车</w>
市 值</w>
厅 长</w>
印 象</w>
装 修</w>
路 人</w>
班 子</w>
总 部</w>
组 图</w>
查 获</w>
替 补</w>
公 平</w>
２０ １
调 解</w>
高 于</w>
婚 礼</w>
光 明
级 别</w>
激 烈</w>
污 水</w>
哈尔 滨</w>
隧 道</w>
案 例</w>
难 度</w>
枪 支</w>
救护 车</w>
总 额</w>
安 徽
受 理</w>
高 峰</w>
都市 报</w>
艺 术</w>
野 生</w>
此 同时</w>
录 像</w>
与 此同时</w>
报 名</w>
舆 论</w>
意大 利</w>
平 安</w>
d e
事 宜</w>
转 载</w>
对 面</w>
宝 马</w>
数 十</w>
本 月</w>
群 体</w>
水 库</w>
跳 楼</w>
拍 照</w>
大 雾</w>
研 发</w>
使 得</w>
优 秀</w>
9 6
脖 子</w>
私 人</w>
审 议</w>
0 2</w>
反 复</w>
习 近平</w>
下 属</w>
0 8</w>
南 京
创业 板</w>
面 包
海 洋</w>
好 几</w>
冰 冰</w>
火 车</w>
湖 人</w>
不得 不</w>
护 士</w>
山 县</w>
奥 巴马</w>
血 迹</w>
怎 样</w>
主 人</w>
被 盗</w>
传 媒</w>
楼 下</w>
推 荐</w>
只 好</w>
佛 山</w>
辞 职</w>
修 改</w>
40 分</w>
贪 污</w>
朋友 圈</w>
志 愿
检 方</w>
提 示</w>
全 身</w>
辽 宁
调 研</w>
外 交
看 守
带 领</w>
切 尔
共和 国</w>
这 次</w>
爱 心</w>
总 是</w>
购 物</w>
新 型</w>
从 未</w>
外 媒</w>
得 手</w>
民 生</w>
校 园</w>
物 流</w>
央 企</w>
出 发</w>
早 已</w>
8 点</w>
卫 星</w>
停车 场</w>
供 应</w>
人 类</w>
自 行</w>
医 护</w>
窗 户</w>
争 执</w>
绝 对</w>
破 门</w>
物 质</w>
兴 趣</w>
9 点</w>
即 便</w>
相 互</w>
点 半</w>
国 安</w>
毕 业
新 加
拉 开</w>
基 本
各 个</w>
获 取</w>
19 4
讲 话</w>
网 民</w>
江苏 省</w>
之 所以</w>
阿里 巴巴</w>
性 质</w>
9 8.
立 刻</w>
太 阳</w>
分 配</w>
n d
监 局</w>
一 线</w>
路 面</w>
米 兰</w>
典 型</w>
么 样</w>
奥 一
中 介</w>
0 4</w>
药 物</w>
从 来</w>
相 同</w>
病 房</w>
动 机</w>
维 修</w>
另 一方面</w>
体 验</w>
雷 雨</w>
少 女</w>
潜 艇</w>
博 士</w>
看守 所</w>
政 府
初 中</w>
遇 难</w>
光明 网</w>
三 分
救 人</w>
推 广</w>
恶 劣</w>
骑 士</w>
救 助
事务 所</w>
经 费</w>
猜 测</w>
湖 北省</w>
描 述</w>
害 者</w>
县 长</w>
o ee
oee ee
尊 重</w>
刑 警</w>
捐 款</w>
加 拿
移 民</w>
球 迷</w>
无 人
廉 政</w>
饭 店</w>
立 法</w>
感 受</w>
冲 击</w>
6 00</w>
解放 军</w>
巡 逻</w>
标 签</w>
石家 庄</w>
码 头</w>
面包 车</w>
身 高</w>
研究 所</w>
阿 姨</w>
助 理</w>
理 论</w>
iPhon e</w>
重 组</w>
尝 试</w>
南 宁</w>
盈 利</w>
宁 市</w>
降 温</w>
温 度</w>
200 1年</w>
销 量</w>
约 定</w>
本 周</w>
不 可
悲 剧</w>
微 软</w>
反 弹</w>
6 5</w>
福 建
反 击</w>
谈 话</w>
真 的</w>
劳 动
加拿 大</w>
研究 院</w>
生 日</w>
世界 杯</w>
特 征</w>
旅 行
0 5
赶 来</w>
警 官</w>
疯 狂</w>
年 报</w>
前 期</w>
3 .</w>
管 局</w>
20 %</w>
森 林</w>
回 去</w>
特 点</w>
煤 矿</w>
安徽 省</w>
赶 往</w>
甘 肃</w>
培 养</w>
00 0万</w>
新加 坡</w>
估 值</w>
i d</w>
阳 光</w>
打 破</w>
不 可</w>
9 9</w>
通 行</w>
顾 客</w>
长 春</w>
小 心</w>
嫌 疑</w>
也 许</w>
黑龙 江</w>
预 防</w>
精 神
疑 问</w>
话 题</w>
大 规模</w>
秘 密</w>
次 日</w>
性 格</w>
n e
震 荡</w>
真 相</w>
克 斯</w>
老 虎</w>
运营 商</w>
200 2年</w>
t i
通 常</w>
下 班</w>
一 级</w>
简 历</w>
校 方</w>
会 员</w>
一 时</w>
等 等</w>
声 称</w>
雨 量</w>
移 交</w>
招 聘</w>
监 察</w>
余 额</w>
丰 富</w>
路 线</w>
组织 部</w>
大 力</w>
争 取</w>
防 雷</w>
逃 离</w>
内 外</w>
毕 竟</w>
傍 晚</w>
深 夜</w>
开 工</w>
省 政府</w>
实 力</w>
5 6</w>
2015-0 7
家 族</w>
动 性</w>
6 亿</w>
各 自</w>
办 公</w>
举 报
小 米</w>
好 友</w>
满 意</w>
公 寓</w>
瞬 间</w>
无 论</w>
5 3</w>
小 偷</w>
5 7</w>
昌 市</w>
日 常</w>
喝 酒</w>
归 案</w>
十 二</w>
好 像</w>
网 讯</w>
日 军</w>
0 6</w>
派 出</w>
案 情</w>
政 委</w>
C EO</w>
林 某</w>
好 好</w>
切尔 西</w>
保 留</w>
人 事</w>
w s</w>
6 时</w>
防 守</w>
答 应</w>
下 半年</w>
200 0年</w>
有 利于</w>
整 合</w>
受 损</w>
产 权</w>
安 置</w>
争 吵</w>
8 8</w>
联 通</w>
滥 用</w>
博物 馆</w>
切 实</w>
食 物</w>
加 工</w>
阻 止</w>
配 置</w>
民 事</w>
期 限</w>
新 社</w>
伤 口</w>
30 %</w>
猥 亵</w>
志愿 者</w>
超 出</w>
老 汉</w>
u m
结 论</w>
更 为</w>
护 人</w>
3 60</w>
西 藏</w>
科 长</w>
奖 金</w>
回 归</w>
港 元</w>
新 建</w>
少 数</w>
皮 肤</w>
未成 年人</w>
多 种</w>
双 手</w>
制 造
靠 近</w>
发 射</w>
谷 歌</w>
完 整</w>
12 时</w>
能 否</w>
浓 度</w>
海 关</w>
汇 报</w>
未 经</w>
晚 间</w>
利 息</w>
阵 容</w>
裁 判</w>
考 核</w>
探 索</w>
适 用</w>
天津 市</w>
红 包</w>
社 保</w>
生 产
江 市</w>
3 时</w>
纽 约</w>
局 面</w>
前 面</w>
中 超</w>
运 动
赌 博</w>
统 筹</w>
正 确</w>
征 收</w>
4 000</w>
管 制</w>
交 往</w>
不 时</w>
政 法
层 面</w>
大 厦</w>
上 级</w>
10 %</w>
登 陆</w>
出 租</w>
当 初</w>
三 星</w>
4 7
防 护</w>
班 主任</w>
更 新</w>
后 续</w>
本 市</w>
预 测</w>
本 案</w>
超 标</w>
大 街</w>
出 手</w>
责 令</w>
蓝 色</w>
发 起</w>
分 管</w>
账 号</w>
太 原</w>
地 球</w>
任 意
职 权</w>
福建 省</w>
无 论
故 障</w>
联 盟</w>
公 益</w>
民 工</w>
园 区</w>
不 但</w>
a l
200 万</w>
李 克
债 券</w>
指 定</w>
实 习</w>
原 告</w>
大 厅</w>
中 共
信 息
传 出</w>
学 位</w>
夏 天</w>
商 务</w>
呈 现</w>
发 动</w>
陪 同</w>
视 网</w>
极 端</w>
中 山</w>
永 远</w>
早 晨</w>
转 让</w>
煤 炭</w>
心 情</w>
任意 球</w>
障 碍</w>
陕 西省</w>
十 万</w>
朱 某</w>
打 捞</w>
国家 队</w>
优 惠</w>
E R
是 说</w>
局 地</w>
e l
詹 姆斯</w>
窗 口</w>
建 造</w>
定 位</w>
o o
G D
高 院</w>
那 样</w>
天 然
中共 中央</w>
p p
转 会</w>
5 时</w>
黑龙 江省</w>
新 鲜</w>
上 车</w>
街 头</w>
深 刻</w>
出 示</w>
依 旧</w>
提 取</w>
例 如</w>
落 网</w>
接 下来</w>
犯 规</w>
失 败</w>
2 时</w>
表 演</w>
维 奇</w>
快 递</w>
绑 架</w>
放 开</w>
总 队</w>
信 用
警 力</w>
角 色</w>
下 调</w>
海 口</w>
斯 坦</w>
工 业
以 往</w>
京 华</w>
排 放</w>
国 防</w>
凤 凰</w>
仓 库</w>
人 大
9 万</w>
不 用</w>
一 部分</w>
12 .
11 .
飞 行
楼 市</w>
考 古</w>
成 果</w>
反 馈</w>
中 央
流 传</w>
全 体</w>
主 持
o u
6 8</w>
运 输
离 家</w>
围 绕</w>
劝 说</w>
伤 势</w>
肚 子</w>
玩 耍</w>
毕业 生</w>
挪 用</w>
人大 代表</w>
亮 相</w>
球 场</w>
考 察</w>
申 报</w>
打 车</w>
周 五</w>
受 害者</w>
人民 共和国</w>
可 见</w>
买 卖</w>
上 演</w>
高 兴</w>
该 院</w>
平 米</w>
分 公司</w>
销 售
道 德</w>
浙 江省</w>
标 志</w>
净 利润</w>
仔 细</w>
赚 钱</w>
处 级</w>
d a
投 案</w>
伪 造</w>
7 6</w>
老 百姓</w>
签 约</w>
周 刊</w>
出 于</w>
中华 人民共和国</w>
车 门</w>
营 收</w>
脱 离</w>
更 换</w>
天然 气</w>
发 帖</w>
事 儿</w>
开 心</w>
政法 委</w>
媳 妇</w>
主 题</w>
车 票</w>
免 去</w>
病 例</w>
牺 牲</w>
屋 内</w>
其 它</w>
万 达</w>
4 时</w>
缴 费</w>
炒 股</w>
勇 士</w>
漏 洞</w>
底 线</w>
医 学</w>
轮 车</w>
GD P</w>
转 变</w>
斯 科</w>
读 书</w>
管 道</w>
牌 照</w>
气 象</w>
村 委会</w>
大 桥</w>
途 径</w>
罚 金</w>
口 市</w>
一 同</w>
生 前</w>
最 初</w>
所 得</w>
县 政府</w>
救助 站</w>
c h
现 任</w>
搜 寻</w>
乐 视网</w>
董 事</w>
李克 强</w>
孕 妇</w>
不 够</w>
用 人</w>
爱 情</w>
引 进</w>
太 平
司 令
策 略</w>
学 会</w>
任 命</w>
国 防
后 者</w>
包 装</w>
麻 烦</w>
爆 发</w>
沿 海</w>
支 撑</w>
头 发</w>
聚 集</w>
排 队</w>
上 周</w>
00 亿</w>
马 刺</w>
绿 色</w>
热 线</w>
成 熟</w>
审 讯</w>
合 计</w>
这 笔</w>
薪 酬</w>
组 合</w>
演 习</w>
新 华</w>
优 化</w>
7 点</w>
截 止</w>
地 带</w>
陌 生</w>
张 家
击 败</w>
疫 苗</w>
8 5</w>
环保 局</w>
各 方</w>
货 物</w>
民 营</w>
天 天</w>
后 卫</w>
上 海市</w>
通 知
纪 念
幼 儿</w>
5 0%</w>
适 应</w>
美 军</w>
三 轮车</w>
二 级</w>
学 员</w>
h t
证 金</w>
16 时</w>
认 证</w>
发 稿</w>
主持 人</w>
每 人</w>
不 起</w>
社 交</w>
无人 机</w>
惠 州</w>
上 来</w>
率 先</w>
现 身</w>
清 晰</w>
样 子</w>
全 年</w>
下 面</w>
语 言</w>
水 面</w>
小 伙
孙 子</w>
入 境</w>
11 点</w>
领 取</w>
昏 迷</w>
居 然</w>
1 -</w>
集团 公司</w>
十 八
不 慎</w>
8 0%</w>
4 8
频 繁</w>
沪 指</w>
垄 断</w>
20 分</w>
部 位</w>
负 担</w>
直 升
人 体</w>
联 想</w>
审 判</w>
回 国</w>
担 忧</w>
外交 部</w>
四 处</w>
占 据</w>
办公 厅</w>
随 时</w>
遗 憾</w>
手 里</w>
奔 驰</w>
17 时</w>
额 度</w>
适 合</w>
成 交
黄 牌</w>
极 大</w>
大 小</w>
事 处</w>
游 泳</w>
实 验</w>
传 销</w>
c h</w>
阿 里</w>
老 太</w>
网 吧</w>
多 方</w>
英 语</w>
概 念</w>
当 选</w>
参 观</w>
会 儿</w>
痕 迹</w>
用 品</w>
特 色</w>
属 实</w>
配 套</w>
神 秘</w>
基 因</w>
哪 儿</w>
制 止</w>
d u
期 货</w>
庆 市</w>
直升 机</w>
克 /
不 行</w>
上 月</w>
西 南</w>
2015-0 5
证 书</w>
致 使</w>
真 是</w>
有 时候</w>
调查 组</w>
依 靠</w>
郑 州市</w>
厅 级</w>
体 育
船 舶</w>
牛 市</w>
商 品
变 更</w>
严 厉</w>
恋 爱</w>
年 纪</w>
阳 台</w>
那 天</w>
计 划
租 赁</w>
民政 局</w>
南京 市</w>
借 款</w>
女 方</w>
作 风</w>
油 价</w>
教育 部</w>
恶 意</w>
决 心</w>
传 言</w>
征 求</w>
信 访</w>
不 予</w>
8 9</w>
a n</w>
先 进</w>
作 者</w>
不 多</w>
下 发</w>
适 当</w>
徐 某</w>
如 下</w>
T V</w>
特 大</w>
楼 盘</w>
准 确</w>
许 可</w>
认 可</w>
水 果</w>
不 动
M ER
车 厢</w>
维 权</w>
秘 书</w>
50 分</w>
骗 取</w>
出 资</w>
行 贿</w>
电 商</w>
电 动</w>
洛 阳</w>
排 查</w>
姐 妹</w>
和 浩
呼 和浩
取 证</w>
逃 逸</w>
浏 览
信 用</w>
多 久</w>
出 任</w>
知 情人</w>
大 火</w>
分 享</w>
职 能</w>
编 制</w>
无 锡</w>
使 馆</w>
董事 会</w>
独 家</w>
滴 滴</w>
大 盘</w>
全 程</w>
轻 松</w>
售 价</w>
酒 后</w>
硕 士</w>
摄 像
亲 自</w>
克 兰</w>
上 门</w>
鉴 于</w>
伊 朗</w>
a b
表 态</w>
自 我</w>
租 房</w>
清 华
工 委</w>
遗 址</w>
营 销</w>
基 于</w>
国 际
.co m
行 长</w>
直 至</w>
太 太</w>
商 户</w>
不 及</w>
MER S</w>
食 堂</w>
选 手</w>
护 栏</w>
举 措</w>
确 诊</w>
就 是说</w>
修 建</w>
贯 彻</w>
财政 部</w>
解 说</w>
深 度</w>
追 求</w>
网 页</w>
效 率</w>
实 践</w>
备 案</w>
周 岁</w>
其 次</w>
体 检</w>
不 到</w>
A P
拉 克</w>
伊 斯
抗 战</w>
情 报</w>
出 院</w>
手 表</w>
定 性</w>
北 大</w>
密 码</w>
剥 夺</w>
缅 甸</w>
出 国</w>
党 校</w>
合 影</w>
保 险
波 动</w>
强 大</w>
富 豪</w>
客 户
健 全</w>
联合 国</w>
污 染
召 回</w>
村 干部</w>
时 任</w>
寻 求</w>
书 面</w>
该 局</w>
子 弹</w>
上 课</w>
杂 志</w>
导 游</w>
起 飞</w>
亲 友</w>
7 5</w>
菜 刀</w>
答 复</w>
平 稳</w>
办 事</w>
th um
a c
缓 解</w>
浏览 器</w>
国 资
侦 破</w>
thum b</w>
未 果</w>
客 人</w>
十八 大</w>
份 额</w>
丢 失</w>
9 -
遭 受</w>
提 及</w>
终 身</w>
明 白</w>
餐 厅</w>
民 党</w>
吉林 省</w>
信 任</w>
留 守</w>
英 雄</w>
流 动性</w>
要 是</w>
或 是</w>
小伙 子</w>
加 速</w>
15 时</w>
管 委会</w>
外 交</w>
商 量</w>
决 策</w>
为 止</w>
e s</w>
锻 炼</w>
试 验</w>
生 涯</w>
化 工</w>
最 为</w>
损 伤</w>
孙 某</w>
王 志
对 流</w>
前 天</w>
4 点</w>
金 属</w>
国资 委</w>
阵 风</w>
清华 大学</w>
以 外</w>
乌 克兰</w>
6 点</w>
解 除</w>
微 克/
坍 塌</w>
4 6
诸 多</w>
克 里
主 权</w>
澳 门</w>
小 王</w>
周 一</w>
到 场</w>
二 十</w>
1 3.
索 要</w>
客户 端</w>
供 应
通知 书</w>
权 威</w>
教 学</w>
高 端</w>
舞 台</w>
列 入</w>
效 力</w>
马 某</w>
赢 得</w>
花 园</w>
核 查</w>
我 省</w>
安 县</w>
原 油</w>
交易 所</w>
中 旬</w>
鲁 能</w>
答 案</w>
农 民工</w>
隔 离</w>
司 法
楼 房</w>
名 叫</w>
中 场</w>
想 象</w>
勘 查</w>
分 布</w>
凭 借</w>
充 满</w>
主 力</w>
10 点</w>
走 向</w>
环 比</w>
南 都
免 职</w>
20 时</w>
边 缘</w>
烧 伤</w>
商 家</w>
相 撞</w>
正 面</w>
无论 是</w>
微克/ 立方米</w>
PM 2.5</w>
钥 匙</w>
左 路</w>
刑 侦</w>
互 相</w>
P O</w>
难 者</w>
坦 言</w>
会 长</w>
一 次
路 过</w>
识 别</w>
档 案</w>
遗 产</w>
足 够</w>
港 口</w>
刑 法</w>
201 6年</w>
配 备</w>
罕 见</w>
空 调</w>
心 脏</w>
州 区</w>
妥 善</w>
人 次</w>
不动 产</w>
检察 官</w>
对 阵</w>
马 来
战 斗
平 衡</w>
10 -
流 程</w>
同 年</w>
6 9</w>
资 质</w>
春 晚</w>
字 体</w>
军 人</w>
进 来</w>
自 然
服 装</w>
布 局</w>
农 药</w>
留 言</w>
不 便</w>
7 2</w>
胡 某</w>
举 动</w>
W in
算 是</w>
保 定</w>
长 沙
皮 球</w>
开 设</w>
公 示</w>
装 置</w>
碰 撞</w>
痛 苦</w>
涉 案
战 士</w>
热 议</w>
业 局</w>
罪 名</w>
控 制
开 枪</w>
定 期</w>
取 出</w>
迹 象</w>
物 园</w>
水 泥</w>
文 字</w>
十 八</w>
停 牌</w>
上 半场</w>
5 6
教 室</w>
建 筑
娃 娃</w>
办 事处</w>
分 为</w>
军 方</w>
阅 兵</w>
时 段</w>
总 公司</w>
医 药</w>
1 /
阅 读</w>
由 此</w>
常 常</w>
删 除</w>
I D</w>
老 乡</w>
出 动</w>
08 :
许 可
从 小</w>
人 力</w>
汇 率</w>
服 刑</w>
情 形</w>
实 名</w>
合 适</w>
A pp
获 利</w>
看 病</w>
法 治</w>
本 山</w>
差 不多</w>
偿 还</w>
尼 亚</w>
体 重</w>
伤 情</w>
签 字</w>
既 然</w>
马来 西亚</w>
连 接</w>
文 化
正 好</w>
地 址</w>
后 悔</w>
9 亿</w>
199 8年</w>
感 动</w>
王 林</w>
对 比</w>
人 身</w>
两 岸</w>
超 级</w>
自 愿</w>
消 除</w>
投 行</w>
不 料</w>
行 凶</w>
落 地</w>
老 伴</w>
选 举</w>
室 内</w>
信用 卡</w>
便 宜</w>
争 夺</w>
14 时</w>
钢 铁</w>
老 年人</w>
南 市</w>
判 刑</w>
保 存</w>
三 十</w>
现 年</w>
阳 区</w>
角 球</w>
帖 子</w>
ww w
延 续</w>
居 民
负 面</w>
石 头</w>
前 方</w>
写 道</w>
6 2</w>
离 职</w>
得 以</w>
出 版</w>
过 往</w>
现 行</w>
曼 城</w>
送 给</w>
杀人 罪</w>
报 网</w>
宏 观</w>
到 来</w>
足 协</w>
本 科</w>
指 责</w>
总 量</w>
协 同</w>
上 报</w>
身 后</w>
细 胞</w>
师 范
商品 房</w>
侵 犯</w>
一 番</w>
5 5
运 作</w>
该 市</w>
草 案</w>
网 帖</w>
总 书记</w>
眼 镜</w>
直 播</w>
事 务</w>
中 路</w>
选 人</w>
民 主</w>
替 考</w>
大 大</w>
厂 商</w>
渔 船</w>
大 气</w>
使 用
199 9年</w>
旅 行</w>
开 启</w>
凶 手</w>
乌 鲁
不 如</w>
18 时</w>
报 价</w>
制 品</w>
决 书</w>
首 相</w>
跟 踪</w>
活 跃</w>
归 还</w>
乌鲁 木
门 将</w>
购 房</w>
谨 慎</w>
报 复</w>
坠 楼</w>
到 处</w>
关 联</w>
人 工</w>
前 提</w>
付 出</w>
无 疑</w>
大 部</w>
二 审</w>
6 4</w>
总 数</w>
商 务
同 居</w>
东 南</w>
不 止</w>
江 县</w>
旅行 社</w>
抚 养</w>
大 姐</w>
互 动</w>
vi de
高 档</w>
接 连</w>
右 手</w>
生 人</w>
车 牌</w>
血 液</w>
消 息
欧 盟</w>
不 已</w>
颜 色</w>
大 战</w>
医 师</w>
主 帅</w>
地 质</w>
一 会儿</w>
看 上去</w>
清 华</w>
手 指</w>
各 国</w>
可 疑</w>
3 3
财 新网</w>
科 研</w>
碰 到</w>
放 心</w>
态 势</w>
商 人</w>
减 轻</w>
贩 毒</w>
意 愿</w>
场 地</w>
卫 视</w>
不 等</w>
上 年</w>
过 度</w>
辽宁 省</w>
缴 获</w>
先 是</w>
食 用</w>
将 来</w>
室 外</w>
善 后</w>
驾 校</w>
播 出</w>
0 后</w>
销 商</w>
正 恩</w>
杀 死</w>
斯 特
奥 迪</w>
吐 槽</w>
优 先</w>
积 水</w>
支 书</w>
战 斗</w>
车 头</w>
许可 证</w>
当 庭</w>
信 托</w>
交 所</w>
3 点</w>
那 时</w>
指挥 部</w>
客 机</w>
连 夜</w>
孙 女</w>
判 决书</w>
乐 观</w>
199 7年</w>
视 为</w>
监 管
外 国
出 走</w>
中 华</w>
i g
8 2</w>
手 上</w>
印 尼</w>
党 风</w>
从 轻</w>
票 价</w>
演 出</w>
此 举</w>
动 手</w>
6 6</w>
肇 事
电 器</w>
汉 族</w>
开 门</w>
大 声</w>
医 保</w>
郑 某</w>
计 局</w>
西 安市</w>
经 纪
政府 部门</w>
塑 料
十 一</w>
修 复</w>
远 远</w>
该 车</w>
精神 病</w>
热 情</w>
买 家</w>
自 从</w>
热 火</w>
源 于</w>
小 陈</w>
保 障
补 助</w>
抗 议</w>
战 机</w>
小 型</w>
定 价</w>
App le</w>
2015-0 7-
钱 包</w>
边 境</w>
整 理</w>
谣 言</w>
西 方</w>
科 学家</w>
理 财</w>
珠 海</w>
基本 上</w>
下 水</w>
d o
8 -0
巴 黎</w>
华 人</w>
全 会</w>
产 业
上 访</w>
传 球</w>
两 会</w>
断 裂</w>
执 勤</w>
座 位</w>
外 科</w>
亲 人</w>
I PO</w>
热 点</w>
教 训</w>
出 血</w>
三 四</w>
身 材</w>
第 六</w>
责任 人</w>
表 面</w>
脸 上</w>
结 算</w>
年 薪</w>
30 0万</w>
漂 亮</w>
学 者</w>
别 的</w>
两 三</w>
豪 车</w>
苏 联</w>
生 活
无 力</w>
实 验
传 来</w>
199 6年</w>
能 量</w>
漳 州</w>
承 包</w>
尼 奥</w>
宁 夏</w>
外 援</w>
花 钱</w>
推 行</w>
成 都市</w>
哪 个</w>
5 00万</w>
言 论</w>
致 死</w>
种 植</w>
法 人</w>
永 信</w>
市场 化</w>
小 张</w>
加 油
-2 2</w>
贩 卖</w>
武 汉
担 保</w>
引 来</w>
大 雨</w>
到 期</w>
一 旁</w>
5 8
豪 华</w>
经纪 人</w>
第 三
申 花</w>
就 医</w>
各 界</w>
版 本</w>
泄 露</w>
发 票</w>
4 0万</w>
梳 理</w>
劝 阻</w>
7 7</w>
男 方</w>
地 块</w>
地 图</w>
重 症</w>
病 床</w>
周 期</w>
同 行</w>
7 9</w>
破 获</w>
收 盘</w>
场 景</w>
回 升</w>
震 惊</w>
转 身</w>
没 什么</w>
汽 油</w>
成 分</w>
r e
也 就是说</w>
www .
看 出</w>
接 收</w>
希 尔</w>
工 商
小 车</w>
包 含</w>
休 假</w>
通 话</w>
理 性</w>
流 动</w>
正 规</w>
备 受</w>
侵 害</w>
休 闲</w>
附 属</w>
莫 斯科</w>
色 情</w>
组 建</w>
相 似</w>
影 片</w>
工作 组</w>
金 华</w>
素 质</w>
款 项</w>
梅 西</w>
届 时</w>
一 天</w>
6 7</w>
00 :00</w>
面 向</w>
登 录</w>
店 铺</w>
收 费
公 正</w>
走 私</w>
江 南</w>
亲 生</w>
艺 术
影 视</w>
宝 贝</w>
厨 房</w>
东 京</w>
vide o</w>
6 1</w>
过 年</w>
理 想</w>
特 警</w>
潜 逃</w>
条 款</w>
暴 跌</w>
安 保</w>
ht t
调 取</w>
英 镑</w>
竞 争
物 资</w>
强 奸
1 4.
轻 伤</w>
解 读</w>
总 监</w>
难 题</w>
用 地</w>
战 胜</w>
高 某</w>
绝 不</w>
点 球</w>
海 峡</w>
１ ０
笔 录</w>
溺 水</w>
大 人</w>
从 严</w>
人 社
二 战</w>
遇 难者</w>
被 迫</w>
股 民</w>
票 房</w>
搬 迁</w>
所 在
低 价</w>
电 站</w>
杠 杆</w>
数 百</w>
小 李</w>
i c
越 野
心 人</w>
开 会</w>
可 惜</w>
三 亚</w>
驾驶 证</w>
税 收</w>
混 乱</w>
就 读</w>
在 场</w>
回 落</w>
伊 拉克</w>
12 -
贪 腐</w>
电 源</w>
查 出</w>
指 示</w>
单 身</w>
窝 点</w>
研究 员</w>
该 县</w>
晓 明</w>
客 运</w>
完 毕</w>
变 动</w>
乐 视</w>
殡 仪
总 共</w>
宠 物</w>
商 店</w>
7 00</w>
10 亿</w>
现 状</w>
处 理
坠 落</w>
证 人</w>
歌 手</w>
格 局</w>
收 集</w>
开 场</w>
199 5年</w>
服 务员</w>
青 年报</w>
议 员</w>
无 期徒刑</w>
企 业
梦 想</w>
暴 露</w>
倒 塌</w>
修 订</w>
越野 车</w>
资 源
礼 金</w>
当 事</w>
带 动</w>
il y</w>
罗 某</w>
李 小
援 引</w>
把 手</w>
征 地</w>
垃 圾
爆 炸
楼 顶</w>
限 购</w>
将 近</w>
发 言</w>
之 际</w>
C h
1 点</w>
营 养</w>
有 待</w>
有 力</w>
链 接</w>
车 队</w>
非 洲</w>
透 明</w>
看 望</w>
相 识</w>
水 量</w>
好 转</w>
众 人</w>
机 械</w>
挂 牌</w>
地 人</w>
养 费</w>
下 子</w>
诉 人</w>
甘 肃
急 诊
封 闭</w>
表 情</w>
消防 员</w>
摄像 头</w>
风 格</w>
长 大</w>
炒 作</w>
抢 走</w>
投 篮</w>
O S</w>
拐 卖</w>
停 职</w>
革 命</w>
雷 霆</w>
课 程</w>
计 委</w>
殡仪 馆</w>
撤 离</w>
就 算</w>
太平 洋</w>
伦 敦</w>
随 身</w>
熊 猫</w>
国防 部</w>
假 期</w>
污染 物</w>
心 中</w>
字 样</w>
之 内</w>
零 售</w>
摔 倒</w>
快 乐</w>
德 里
奇 怪</w>
解 救</w>
普 京</w>
国 会</w>
共 识</w>
买 房</w>
9 1</w>
/ /
重 庆市</w>
赃 款</w>
贵 州
林 市</w>
常 州</w>
对 抗</w>
名 称</w>
htt p
: //
8 1</w>
说 是</w>
考 场</w>
斗 争</w>
情 侣</w>
家 乡</w>
失 控</w>
停 放</w>
老 太太</w>
居 住
前 日</w>
自 来
本 网</w>
英 超</w>
疗 费</w>
清 单</w>
放 松</w>
延 长</w>
左 手</w>
谢 谢</w>
电视 剧</w>
状 元</w>
村 支书</w>
导 员</w>
十 字
京 东</w>
不 适</w>
一次 性</w>
http ://
6 3</w>
规 矩</w>
无 罪</w>
志 愿</w>
预 案</w>
面 部</w>
集 资</w>
降 雨量</w>
无 关</w>
客 服</w>
城 县</w>
含 有</w>
区 长</w>
动 物园</w>
一 下子</w>
b j
7 4</w>
10 分</w>
随 意</w>
门 票</w>
村 子</w>
拜 仁</w>
扬 州</w>
在 职</w>
中 部</w>
黄 河</w>
自来 水</w>
沃 尔
基 金
受 灾</w>
跟 随</w>
4 .</w>
201 3</w>
2 1时</w>
频 频</w>
郭 某</w>
这 项</w>
储 备</w>
7 8</w>
11 -
负 有</w>
渔 民</w>
旅游 局</w>
下 行</w>
显 著</w>
工 会</w>
兼 任</w>
从 中</w>
五 一</w>
07 :
镜 头</w>
追 踪</w>
武汉 市</w>
报 销</w>
小 梅</w>
过 于</w>
职 位</w>
水 域</w>
当 局</w>
天 下</w>
坦 克</w>
卫生 局</w>
优 质</w>
联 邦</w>
总 结</w>
7 1</w>
贵州 省</w>
调 任</w>
种 种</w>
司令 员</w>
台 州</w>
发 动机</w>
祝 福</w>
所在 地</w>
往 来</w>
2015-0 6
退 役</w>
蔬 菜</w>
艰 难</w>
生 存</w>
切 断</w>
不 住</w>
限 行</w>
访 者</w>
缩 小</w>
县 级</w>
县 人</w>
7 3</w>
警 示</w>
荷 兰</w>
朝 阳</w>
中 新社</w>
赛 事</w>
索 赔</w>
19 时</w>
政 法</w>
把 握</w>
乘 车</w>
陪 伴</w>
阿 根
问 责</w>
调 控</w>
说 道</w>
被 捕</w>
水 中</w>
有 序</w>
建 华</w>
两 地</w>
胞 胎</w>
经 销商</w>
淘 汰</w>
泰 达</w>
放 学</w>
打 架</w>
庆 祝</w>
制造 业</w>
体 内</w>
东 南
da ily</w>
落 户</w>
特 意</w>
晋 升</w>
宁 县</w>
学 费</w>
名 下</w>
8 6</w>
13 时</w>
镇 政府</w>
轻 微</w>
若 干</w>
着 急</w>
含 量</w>
分 类</w>
冰 毒</w>
贵 阳</w>
临 床</w>
一 万</w>
5 点</w>
阿 森
长沙 市</w>
辈 子</w>
约 翰
新 兴</w>
性 侵</w>
康 复</w>
小 牛</w>
产 妇</w>
6 000</w>
遵 守</w>
敏 感</w>
增 幅</w>
创 作</w>
16 .
计 生
美 女</w>
影 响
小 丽</w>
供 图</w>
下 载</w>
酒 精</w>
甘肃 省</w>
效 应</w>
拦 截</w>
尴 尬</w>
镇 长</w>
类 型</w>
神 经</w>
短 短</w>
复 旦</w>
黎 平</w>
落 水</w>
时 间
损 坏</w>
恋 情</w>
屏 幕</w>
剩 余</w>
过 后</w>
拥 堵</w>
作 家</w>
业 内</w>
歹 徒</w>
楼 上</w>
好 多</w>
什 么样</w>
主 导</w>
下 半场</w>
上 下</w>
一 两</w>
5 9
辛 苦</w>
车 窗</w>
申 请
援 助</w>
当 即</w>
反 抗</w>
o l
bj ne
Win do
私 家
内 心</w>
餐 馆</w>
走 势</w>
等 到</w>
偷 偷</w>
侵 权</w>
侧 翻</w>
依 照</w>
计 算
故 宫</w>
改 进</w>
店 主</w>
工程 师</w>
命 案</w>
干 净</w>
卫 队</w>
入 学</w>
主 角</w>
领 土</w>
裁 定</w>
水 位</w>
夏 季</w>
即 可</w>
低 调</w>
鸡 蛋</w>
餐 饮</w>
缓 刑</w>
疏 散</w>
擅 自</w>
并 未</w>
参 谋
一 代</w>
门 市</w>
铁 路
认 罪</w>
要 么</w>
母 子</w>
文 学</w>
怎 么
对 待</w>
包 裹</w>
骗 子</w>
风 力</w>
中 东</w>
格 兰</w>
扑 灭</w>
怎么 办</w>
影响 力</w>
后 期</w>
n d</w>
订 单</w>
私家 车</w>
知 情
施 救</w>
徐 州</w>
强 势</w>
定 书</w>
大 批</w>
士 兵</w>
化 学</w>
乡 村</w>
6 0
承 受</w>
北 方</w>
阿根 廷</w>
赵 黎平</w>
河 道</w>
捐 献</w>
手 术
干 预</w>
尔 ·
国 道</w>
原 料</w>
专 用</w>
N A</w>
签 名</w>
眼 前</w>
法 医</w>
置 业</w>
机 器
所 属</w>
密 集</w>
出 警</w>
住 处</w>
2 点</w>
配 资</w>
站 台</w>
督 促</w>
法 案</w>
政治 局</w>
小 说</w>
诊 所</w>
扩 散</w>
始 人</w>
均 价</w>
国 产</w>
办公 楼</w>
供 水</w>
严 禁</w>
不 讳</w>
10 1.
西 北</w>
翻 译</w>
父 子</w>
炸 弹</w>
明 市</w>
常 规</w>
布 拉
生 病</w>
救 命</w>
团 体</w>
.c n</w>
太 阳
加 班</w>
伴 随</w>
降 息</w>
赔 偿
诈 骗
终 止</w>
案 子</w>
抵 押</w>
吸 食</w>
卫 国</w>
半 夜</w>
会 见</w>
维 斯</w>
品 种</w>
高 官</w>
面 试</w>
阿森 纳</w>
运 用</w>
警 戒
星 期</w>
提 拔</w>
打 入</w>
实 体</w>
创 始人</w>
本 轮</w>
批 复</w>
战 场</w>
只 得</w>
x x
w s
Windo ws</w>
等 候</w>
浑 身</w>
商 铺</w>
下 达</w>
船 只</w>
注 重</w>
步 行
15 00</w>
记 者
种 子</w>
演 讲</w>
泄 漏</w>
治 病</w>
小 朋友</w>
婚 证</w>
全 场</w>
何 时</w>
1 7.
里 人</w>
迟 迟</w>
执 法
手 臂</w>
小 林</w>
儿 女</w>
一 行</w>
10 00万</w>
院 子</w>
达 标</w>
热 门</w>
大 米</w>
东 北
骚 扰</w>
进 程</w>
烈 士</w>
收 获</w>
哈 登</w>
会 计</w>
看 法</w>
王 星</w>
村 庄</w>
支 付
幸 运</w>
外 逃</w>
W at
邮 件</w>
车 型</w>
胸 部</w>
墓 地</w>
坚 定</w>
克 尔</w>
东 莞
9 5</w>
8 8
立 场</w>
招 标</w>
建 业</w>
中 信</w>
1 8.
科 比</w>
此 类</w>
招 呼</w>
拖 欠</w>
投 票</w>
执 行
回 报</w>
199 4年</w>
马 拉
去 向</w>
运 会</w>
节 奏</w>
老 年</w>
租 金</w>
裤 子</w>
政治 权利</w>
库 存</w>
客 观</w>
从 业</w>
A C</w>
玉 林</w>
埃 尔
前 锋</w>
9 3</w>
3 4
管理 处</w>
居民 楼</w>
太 空</w>
可 谓</w>
事 先</w>
-2 1</w>
足 联</w>
困 境</w>
味 道</w>
五 六</w>
i n</w>
4 0%</w>
-2 4</w>
马 尔
青 海</w>
积 累</w>
燃 烧</w>
果 断</w>
抗 日</w>
党 政</w>
为 期</w>
中 石油</w>
中 石化</w>
6 月份</w>
15 万</w>
酒 驾</w>
科 院</w>
理 念</w>
异 地</w>
山 路</w>
就 此</w>
四 五</w>
吸 收</w>
亚 投行</w>
15 .
顾 问</w>
边 界</w>
早 报</w>
岸 边</w>
小 学生</w>
何 某</w>
实 业</w>
同 步</w>
东 海</w>
配 偶</w>
等 级</w>
实验 室</w>
驳 回</w>
难 道</w>
足 以</w>
肿 瘤</w>
清 晨</w>
强 度</w>
干 扰</w>
外 围</w>
一 阵</w>
6 0%</w>
雷 达</w>
调 侃</w>
欧 冠</w>
机器 人</w>
时 机</w>
慈 善</w>
开 盘</w>
土 耳
二 十
飞行 员</w>
院 方</w>
钓 鱼
超 越</w>
至 此</w>
罪 犯</w>
第 2</w>
涨 停</w>
思 路</w>
4 月份</w>
官 场</w>
宗 教</w>
发 送</w>
广 告
吵 架</w>
一 汽</w>
男 婴</w>
环 卫</w>
比 亚</w>
建 国</w>
安 德
诉 求</w>
文 /
急 救
山 上</w>
宽 带</w>
钱 财</w>
金 融
永 康</w>
恐 慌</w>
危 险
乔 丹</w>
释 永信</w>
通 告</w>
思 考</w>
不 当</w>
Wat ch</w>
计算 机</w>
上 调</w>
防 暑
荣 誉</w>
报 讯</w>
性 能</w>
必 然</w>
击 中</w>
农 田</w>
会 谈</w>
王 天
常 见</w>
发 文</w>
卧 室</w>
-2 5</w>
转 账</w>
捐 赠</w>
原 市</w>
加油 站</w>
几 百</w>
转 入</w>
扰 乱</w>
好 心人</w>
好 事</w>
伊斯 兰
2015-0 8-
青 少年</w>
滑 坡</w>
湖 区</w>
地 产
创 下</w>
返 还</w>
诺 基
观 念</w>
动 态</w>
伤 员</w>
专 题</w>
一 律</w>
8 7</w>
20 .
随 地</w>
拉 斯</w>
延 伸</w>
列 为</w>
冒 充</w>
中 文</w>
2015-0 8-0
最 高
支付 宝</w>
播 放</w>
供 认
二 手
下 旬</w>
5 7
19 3
队 友</w>
疼 痛</w>
延 安</w>
市 政</w>
雾 霾</w>
见 状</w>
没 法</w>
残 骸</w>
整 形</w>
收 回</w>
扩 张</w>
国 民党</w>
变 形</w>
乌鲁木 齐</w>
A T
通 讯</w>
转 会
路 况</w>
试 验
腹 部</w>
疫 情</w>
沿 着</w>
放 缓</w>
开 支</w>
婚 后</w>
利 亚
军 委</w>
保 健</w>
供认 不讳</w>
东莞 市</w>
r i
l e
规 律</w>
获 救</w>
淘 宝</w>
会 所</w>
七 八</w>
a s
走 失</w>
衡 阳</w>
添 加</w>
新 娘</w>
快 船</w>
心 态</w>
安 慰</w>
基金 会</w>
在 逃</w>
以 内</w>
临 近</w>
19 .
院 士</w>
统 计局</w>
礼 物</w>
用 车</w>
猝 死</w>
不 力</w>
K TV</w>
起 初</w>
贫 困</w>
据 称</w>
岛 市</w>
富 力</w>
如 实</w>
奥一 网</w>
夺 冠</w>
冥 王星</w>
9 6.
诺基 亚</w>
绿 城</w>
第 3</w>
海 南省</w>
布 鲁
安 检</w>
器 官</w>
劫 持</w>
一 把手</w>
防暑 降温</w>
拓 展</w>
合 作
兴 奋</w>
代表 大会</w>
走 廊</w>
警 惕</w>
网 官方</w>
第 七</w>
称 号</w>
研 制</w>
眼 泪</w>
对 不起</w>
4 G</w>
预 约</w>
逃 犯</w>
每 股</w>
构 建</w>
公 牛</w>
光 明</w>
in g</w>
8 3</w>
渐 渐</w>
某 些</w>
提 名</w>
念 头</w>
入 口</w>
齐 鲁
高 尔
逆 转</w>
身 着</w>
理 工
火 势</w>
沿 线</w>
出 轨</w>
中 断</w>
u s</w>
航 天</w>
着 火</w>
看 好</w>
玩 笑</w>
泸 州</w>
墨 西
吸 烟</w>
受 害</w>
出 面</w>
信 访
退 还</w>
蔓 延</w>
电 网</w>
玩 具</w>
外 资</w>
签 证</w>
支 部</w>
常 年</w>
封 锁</w>
参谋 长</w>
前 场</w>
偶 尔</w>
隐 私</w>
警戒 线</w>
科 学院</w>
白 酒</w>
暴 恐</w>
惊 讶</w>
庞 大</w>
场 合</w>
华 为</w>
体 征</w>
约 束</w>
气象 局</w>
成交 量</w>
奥一 网官方</w>
区 别</w>
企业 家</w>
oeeee nd</w>
oeeee .com</w>
记 忆</w>
法 学</w>
开 具</w>
叔 叔</w>
一 举</w>
n an
起 床</w>
谎 称</w>
美 好</w>
电 影
就 诊</w>
记 载</w>
计划 生育</w>
场 面</w>
华 夏</w>
假 币</w>
下 方</w>
露 天</w>
资 深</w>
放 假</w>
南都 网</w>
主 张</w>
上 传</w>
-2 8</w>
生 气</w>
唐 某</w>
儿 媳</w>
> >
0 2
澄 清</w>
游 玩</w>
水 县</w>
时 速</w>
护 照</w>
友 好</w>
第 八</w>
开 局</w>
发 掘</w>
老 鹰</w>
网 曝</w>
正 义</w>
抢 险</w>
师范 大学</w>
奶 粉</w>
回 购</w>
古 城</w>
协 警</w>
o m
V I
10 -</w>
齐鲁 网</w>
重 度</w>
远 处</w>
行 程</w>
流 入</w>
年 内</w>
处 在</w>
增 多</w>
土耳 其</w>
双 双</w>
以 此</w>
紧 紧</w>
性 关系</w>
袁 某</w>
股 指</w>
海 口市</w>
支 行</w>
一 手</w>
-2 7</w>
高 空</w>
马 尔</w>
早 就</w>
招 商</w>
愤 怒</w>
7 0%</w>
通 车</w>
经营 者</w>
气 愤</w>
批 发</w>
战斗 机</w>
双 胞胎</w>
利 物
浪 费</w>
日 元</w>
验 证</w>
收费 站</w>
在 建</w>
利物 浦</w>
涨 价</w>
救 市</w>
情 感</w>
复 出</w>
单 元</w>
隐 瞒</w>
消息 网</w>
注 射</w>
校 区</w>
命 运</w>
门 外</w>
追 问</w>
违 章</w>
这 边</w>
自 律</w>
环 球
机 动</w>
悄 悄</w>
平 方
只 见</w>
勒 索</w>
露 出</w>
毫 无</w>
有 意</w>
出 色</w>
入 选</w>
信 贷</w>
人 质</w>
199 3年</w>
量 刑</w>
水 质</w>
林 业局</w>
政治 部</w>
扣 押</w>
所 有
唐 山</w>
合 力</w>
华 盛
利 好</w>
D NA</w>
隔 壁</w>
野 猪</w>
细 则</w>
省 市</w>
监察 部</w>
柴 油</w>
机 器</w>
数 学</w>
摆 脱</w>
房 东</w>
巡 查</w>
可 爱</w>
南 县</w>
c k
酒 吧</w>
美 方</w>
经 商</w>
管 辖</w>
瑞 士</w>
特 定</w>
强奸 罪</w>
建 设
图 书
围 墙</w>
周 四</w>
午 后</w>
人 人</w>
2015-0 5-
航 空
灾 区</w>
消防 车</w>
国 王</w>
商 标</w>
听 取</w>
冻 结</w>
从 此</w>
智 慧</w>
市 中心</w>
占 地</w>
三 角</w>
申 购</w>
牌 号</w>
放 下</w>
平 静</w>
存 量</w>
嫖 娼</w>
南 非</w>
几 万</w>
保 健
读 者</w>
策 划</w>
硬 件</w>
知情 者</w>
查 办</w>
文 中</w>
国 土
产 量</w>
下 游</w>
du .com</w>
1. 5</w>
黑 客</w>
舒 服</w>
省 纪委</w>
卫生 间</w>
8 4</w>
45 分</w>
15 %</w>
阵 雨</w>
网 传</w>
并 购</w>
展 现</w>
nd daily</w>
津 贴</w>
机 组</w>
度 过</w>
差 异</w>
呕 吐</w>
助 于</w>
伊斯兰 国</w>
不 利</w>
０ ０</w>
辗 转</w>
车 间</w>
谢 某</w>
英 文</w>
收 藏</w>
开 房</w>
前 一天</w>
e s
9 2</w>
门 槛</w>
缺 少</w>
地 理</w>
交易 日</w>
乃 至</w>
上 百</w>
nan du.com</w>
推 测</w>
审 判
和 谐</w>
全 线</w>
全 家</w>
4 S</w>
长 城</w>
美 容</w>
罪 行</w>
站 点</w>
癌 症</w>
牵 头</w>
次 数</w>
录 音</w>
占 用</w>
北京 大学</w>
分 歧</w>
25 0</w>
黑 车</w>
销售 额</w>
残 疾</w>
报 考</w>
局 势</w>
国 队</w>
厂 房</w>
会 上</w>
付 款</w>
重 建</w>
追 逃</w>
聚 会</w>
清 醒</w>
师 生</w>
不 然</w>
谴 责</w>
美 丽</w>
法 拉
校 车</w>
提 议</w>
大 连
侦 办</w>
东 风</w>
救 灾</w>
报 纸</w>
化 学
入 院</w>
他 家</w>
6 00
除 此
红 灯</w>
竞争 力</w>
更 名</w>
据 说</w>
房 门</w>
得 一
帽 子</w>
6 7
防 空</w>
购 房
意 图</w>
想 起</w>
外 来</w>
倾 向</w>
进 步</w>
血 管</w>
破 裂</w>
民 房</w>
桂 林</w>
3 2
电 线</w>
版 权</w>
滨 海</w>
注 明</w>
子 公司</w>
国 民</w>
传 递</w>
错 过</w>
边 防</w>
核 准</w>
尸 检</w>
学 术</w>
女 婴</w>
呼 格
叙 利亚</w>
8 -</w>
23 时</w>
饮 料</w>
陆 军</w>
税 局</w>
灭 火</w>
抱 怨</w>
受 访者</w>
5 月份</w>
验 收</w>
重 复</w>
生 效</w>
猪 肉</w>
带 有</w>
宽 松</w>
奇 才</w>
华盛 顿</w>
刹 车</w>
依 赖</w>
22 时</w>
贸 区</w>
比 重</w>
抚 养费</w>
工作 日</w>
安 区</w>
夫 人</w>
化 解</w>
冷 空气</w>
其 他人</w>
作 文</w>
领导 班子</w>
科 目</w>
撞 击</w>
常 态</w>
层 次</w>
女 婿</w>
击 毙</w>
义 勇
鳄 鱼</w>
赌 场</w>
监 护人</w>
敲 诈
在 校</w>
历 任</w>
一 个
8 000</w>
20 年</w>
-2 3</w>
行 星</w>
监 护
收 缴</w>
图书 馆</w>
南 昌市</w>
华 润</w>
公 共
入 住</w>
行 李</w>
环 卫
洪 水</w>
打 听</w>
恶 化</w>
出 让</w>
军 工</w>
充 电</w>
高 压</w>
阿 拉
缩 短</w>
安 抚</w>
全 民</w>
集团 军</w>
血 压</w>
缓 慢</w>
终 端</w>
火 星</w>
旅 馆</w>
印 发</w>
201 7年</w>
运动 员</w>
输 送</w>
班 级</w>
潜 在</w>
歌 曲</w>
提 问</w>
a m
走 路</w>
营 运</w>
理 事
演 练</w>
干 活</w>
体 化</w>
20 亿</w>
饮 食</w>
辱 骂</w>
环球 网</w>
加 之</w>
ur i</w>
陌 生人</w>
辩 护人</w>
见 义勇
艾 滋
结 婚证</w>
氧 化
有 助于</w>
建筑 物</w>
尼 泊
大 队长</w>
人 选</w>
举报 人</w>
i r
-2 6</w>
精 选</w>
社会 主义</w>
相 处</w>
标 识</w>
日 方</w>
宣 称</w>
上 方</w>
青 报</w>
新 生
外 部</w>
今 晚</w>
采 写</w>
部 级</w>
药 费</w>
荣 华</w>
考 验</w>
测 算</w>
江 区</w>
昆 明市</w>
战 术</w>
异 议</w>
响 应</w>
名 人</w>
9 8</w>
途 经</w>
记者 会</w>
联 社</w>
来 讲</w>
整 容</w>
房 产
区 间</w>
全 新</w>
青 春</w>
过 错</w>
身 影</w>
春 市</w>
性 别</w>
开 拓
宪 法</w>
存 放</w>
司 长</w>
发 电</w>
势 力</w>
东 县</w>
车 身</w>
热 心</w>
惊 人</w>
引 入</w>
同 性
取 保</w>
不 顾</w>
2015-0 4
遏 制</w>
舰 队</w>
自 觉</w>
缺 陷</w>
灰 色</w>
大 哥</w>
a p
转 向</w>
紧 接着</w>
监 视</w>
口 角</w>
半 岛</w>
人 气</w>
自 贸区</w>
眼 中</w>
框 架</w>
悬 赏</w>
前 妻</w>
全 世界</w>
住 建
中 间
三分 球</w>
i d
论 文</w>
管 控</w>
授 予</w>
I S</w>
： 00</w>
规 划
值 得一
-2 9</w>
景 点</w>
强 迫</w>
厉 害</w>
s h
鹈 鹕</w>
颈 部</w>
雷 斯</w>
邮 报</w>
追 尾</w>
芯 片</w>
皇 帝</w>
沙 漠</w>
拌 饭</w>
小 轿车</w>
呼 吸
力 争</w>
养 殖
例 行</w>
下 列</w>
S t
随 时
在 意</w>
保 密</w>
交 锋</w>
两 侧</w>
随时 随地</w>
金 山</w>
民 航</w>
残 疾
极 其</w>
射 击</w>
实 性</w>
官 司</w>
加 油</w>
减 刑</w>
上 岸</w>
u l
12 点</w>
院 校</w>
通 缉
选 拔</w>
讯 问</w>
耐 心</w>
登 记
燃 气</w>
平 县</w>
坚 强</w>
借 贷</w>
万 科</w>
除此 之外</w>
铁路 局</w>
计 师</w>
徐 纯
平 日</w>
太 原市</w>
周 三</w>
向 上</w>
企 图</w>
钓鱼 岛</w>
矿 业</w>
每 周</w>
情 妇</w>
受 审</w>
卫生 院</w>
出租 屋</w>
今 晨</w>
中 医</w>
张 晓
尼泊 尔</w>
周 二</w>
公 开
候 选人</w>
乞 讨</w>
w e
福 利
申 诉</w>
患 病</w>
思 维</w>
怎 么样</w>
天 空</w>
北 青报</w>
勘 察</w>
前 景</w>
公共 场所</w>
假 日</w>
值得一 提</w>
10 2.
里 克</w>
耳 光</w>
罗 马</w>
综合 征</w>
科 级</w>
运 送</w>
粮 食</w>
灰 熊</w>
法拉 利</w>
日 益</w>
指 令</w>
大 河
见义勇 为</w>
碎 片</w>
眼 里</w>
真 实性</w>
好 人</w>
加 剧</w>
出 境</w>
代 价</w>
不 了</w>
边 上</w>
检 疫</w>
效 益</w>
山 体</w>
大 师</w>
国家 级</w>
医 疗费</w>
北 车</w>
养 殖</w>
一 面</w>
M H
5 -</w>
4 4
挣 钱</w>
持 枪</w>
小 三</w>
保 证金</w>
一 刻</w>
警 员</w>
视 野</w>
药 店</w>
直 径</w>
沈 阳市</w>
求 婚</w>
成 效</w>
左 脚</w>
工 友</w>
尔 斯</w>
小 雨</w>
分 行</w>
关 机</w>
共 享</w>
9 9
理 科</w>
柜 台</w>
普 通
文/ 图</w>
我 家</w>
急救 车</w>
开拓 者</w>
广 网</w>
场 上</w>
信 阳市</w>
代 理
轻 生</w>
该 国</w>
消 化</w>
模 糊</w>
得 出</w>
培 训
发 达</w>
发 育</w>
分 成</w>
不 服</w>
洗 澡</w>
墨西 哥</w>
塑料 袋</w>
出 狱</w>
个 股</w>
上 游</w>
第十 二</w>
科 员</w>
留 学</w>
现 代
玉 米</w>
巡 警</w>
初 期</w>
e b
造 假</w>
德 军</w>
幼 女</w>
小 玲</w>
告 别</w>
前 任</w>
分 数</w>
闽 南
莫 迪</w>
经 典</w>
核 电</w>
查 找</w>
委 屈</w>
刚 好</w>
出 击</w>
亲 密</w>
P I</w>
2015-05 -0
10 0%</w>
那 边</w>
资 助</w>
生 长</w>
沉 默</w>
新闻 记者</w>
恐 怕</w>
巴 基
川 县</w>
兰 州市</w>
6 -</w>
11 -</w>
高 新区</w>
陈 述</w>
还 原</w>
转会 费</w>
森 林
拿 走</w>
抢 劫
好 处</w>
下 周</w>
7 -</w>
防 治</w>
里 斯</w>
邹 勇</w>
邓 某</w>
遇 害</w>
浓 雾</w>
求 证</w>
杭 州市</w>
山 村</w>
夺 得</w>
兼 职</w>
目 击</w>
成 龙</w>
总 计</w>
平方 公里</w>
分 开</w>
会 同</w>
陈 某
纠 正</w>
斯 基</w>
敲 诈</w>
印 度
冷 静</w>
以 免</w>
人 行
I C
简 直</w>
电 台</w>
流 通</w>
化 石</w>
E C</w>
A nd
财 报</w>
移 植</w>
着 手</w>
比 0</w>
母 女</w>
外 汇</w>
呼和浩 特</w>
原 有</w>
中 医院</w>
一 会</w>
降 幅</w>
车 速</w>
物 价</w>
服务 业</w>
巴基 斯坦</w>
199 2年</w>
防 卫</w>
追 捕</w>
谈 及</w>
群 岛</w>
急 忙</w>
实 地</w>
奇 葩</w>
保护 区</w>
侮 辱</w>
25 %</w>
银 行业</w>
成 人</w>
平 顶
实 时</w>
大 使</w>
华 北</w>
出 入</w>
低 迷</w>
通 用</w>
贪 官</w>
探 测</w>
家 暴</w>
墙 上</w>
历 时</w>
一 生</w>
09 :
进 而</w>
泡 沫</w>
攻 势</w>
投 放</w>
央 广网</w>
大连 市</w>
南 宁市</w>
先 行</w>
稿 件</w>
激 励</w>
李 晨</w>
批 次</w>
冲 动</w>
专 利</w>
躲 避</w>
艾滋 病</w>
自 卫队</w>
本 金</w>
停 留</w>
何 人</w>
住 宿</w>
a l</w>
黄 牛</w>
高速 路</w>
第 4</w>
淫 秽</w>
水 利
水 上</w>
巨 头</w>
入 狱</w>
不 仅仅</w>
一 辈子</w>
顿 时</w>
闯 入</w>
逃 避</w>
计 生</w>
枪 手</w>
杀人 案</w>
早 日</w>
彼 此</w>
不 堪</w>
１ ９
直 属</w>
溺 亡</w>
散 落</w>
收 养</w>
挽 回</w>
投 标</w>
好 奇</w>
务 局</w>
出 战</w>
侵 占</w>
不 堪
上 衣</w>
4 -</w>
马 航</w>
这 块</w>
辨 认</w>
衡 阳市</w>
私 自</w>
担 当</w>
异 物</w>
口 头</w>
厂 家</w>
t er</w>
窒 息</w>
批 捕</w>
年 限</w>
完 美</w>
听 见</w>
198 8年</w>
降 价</w>
虚 拟</w>
界 面</w>
油 田</w>
李 永
接 警</w>
当 成</w>
延 误</w>
完 工</w>
大 巴</w>
交 付</w>
— ——</w>
3 70</w>
衣 物</w>
虐 待</w>
王 思
挣 扎</w>
店 员</w>
大 使馆</w>
匆 匆</w>
共 青
候 审</w>
6 0万</w>
10 3.
重 返</w>
采 集</w>
造 型</w>
进 出</w>
福利 院</w>
抢 夺</w>
归 属</w>
外国 人</w>
场 外</w>
国 资</w>
募 集</w>
刚 才</w>
克 森</w>
停 产</w>
3 月份</w>
鼻 子</w>
考 点</w>
终 结</w>
离 去</w>
梁 某</w>
摆 放</w>
往 年</w>
大 额</w>
其 后</w>
醒 来</w>
第 九</w>
目 睹</w>
没 事</w>
塑 料</w>
医 务</w>
做 饭</w>
9 0%</w>
该 村</w>
行 走</w>
文 艺</w>
命 令</w>
保 管</w>
驾 照</w>
辞 去</w>
贝 尔</w>
谈 会</w>
调 度</w>
失 望</w>
养老 院</w>
党 中央</w>
两 口</w>
上 个
上 万</w>
20 20年</w>
醉 酒</w>
贬 值</w>
绝 大多数</w>
来 往</w>
探 访</w>
抗 日
感 慨</w>
平 板</w>
关 节</w>
停 靠</w>
伙 同</w>
部 件</w>
对 应</w>
天 然</w>
一 点
鞍 山</w>
门 窗</w>
石 流</w>
潍 坊</w>
涉案 人员</w>
水 利</w>
安 倍
城 镇
务 工</w>
入 室</w>
从 不</w>
丰 田</w>
１ ２
辩 护
疾 控</w>
极 为</w>
机 遇</w>
抢 断</w>
差 点</w>
3 -</w>
馨 予</w>
飞 往</w>
用 途</w>
灵 活</w>
楼 梯</w>
时 隔</w>
巴 尔
华 尔
不 准</w>
４ 年</w>
镇 江</w>
追 赶</w>
进 驻</w>
精 力</w>
泥 石流</w>
残疾 人</w>
时 尚</w>
指 纹</w>
对 接</w>
威 廉
团 结</w>
共青 团</w>
一 体化</w>
驾驶 室</w>
题 材</w>
递 交</w>
谅 解</w>
语 文</w>
试验 区</w>
而 已</w>
电 池</w>
本 土</w>
古 代</w>
全 文</w>
作 物</w>
人 为</w>
主 任
重 量</w>
葡 萄
联 络</w>
税 务</w>
栏 目</w>
时 常</w>
收 拾</w>
少 将</w>
大 熊猫</w>
夜 宵</w>
商 业
保 罗</w>
二 代</w>
x j
高 额</w>
自治 州</w>
自 由
自 发</w>
水 果
星 期
干 警</w>
山 洪</w>
口 处</w>
一 百</w>
调 节</w>
娱 乐
出 土</w>
东 方
C F
06 :
露 面</w>
长 安</w>
烟 草</w>
权 人</w>
暑 假</w>
整 顿</w>
数 千</w>
大 奖</w>
上 线</w>
P S</w>
黄 金
竞 技</w>
烟 花</w>
滋 事</w>
掘 机</w>
挖 掘机</w>
德 罗</w>
大 腿</w>
南 充</w>
北 区</w>
供应 商</w>
严 惩</w>
9 -</w>
随 便</w>
辐 射</w>
认 同</w>
眼 看</w>
平 常</w>
公 诉人</w>
王 晓
热 闹</w>
流 失</w>
杨 卫
暗 访</w>
施 工
战 役</w>
卖 家</w>
分 离</w>
两 万</w>
上 千</w>
8 0万</w>
高 三</w>
锦 赛</w>
遣 返</w>
进 出口</w>
耳 朵</w>
汇 款</w>
柳 州</w>
攻 击
挖 掘</w>
扮 演</w>
同 伴</w>
便 是</w>
上个 月</w>
o t
陆 某</w>
这 部</w>
羁 押</w>
绳 子</w>
继 承</w>
篮 球</w>
硬 币</w>
点 评</w>
捆 绑</w>
恩 爱</w>
入 网</w>
借 助</w>
郁 症</w>
视 线</w>
河 区</w>
概 率</w>
本 场</w>
志 强</w>
受 益</w>
半 时</w>
医 药费</w>
劫 匪</w>
献 血</w>
爱 人</w>
流 浪</w>
洛 杉
oo k</w>
１ 日</w>
证 会</w>
融 券</w>
编 造</w>
红 军</w>
晋 级</w>
建 军</w>
女 神</w>
台 北</w>
全 县</w>
以 便</w>
专 业
三 峡</w>
门 诊</w>
辩 护</w>
起 诉
自 制</w>
老 鼠</w>
片 区</w>
气 候</w>
正 值</w>
收 益
尼 斯</w>
夜 里</w>
复 苏</w>
回 头</w>
久 前</w>
不 久前</w>
or e</w>
i s
财政 局</w>
解 围</w>
腿 部</w>
胳 膊</w>
肖 某</w>
肌 肉</w>
男 朋友</w>
楚 天</w>
查 实</w>
扣 除</w>
忘 记</w>
女 足</w>
周 日</w>
吕 某</w>
动 漫</w>
临 沂</w>
w x</w>
高 价</w>
转 基因</w>
西 斯</w>
洛杉 矶</w>
支 配</w>
拉 里</w>
技 能</w>
不 对</w>
7 000</w>
车 牌号</w>
表 述</w>
特 市</w>
战 绩</w>
当 地人</w>
发 球</w>
动 员</w>
中央 军委</w>
ck xx
阻 碍</w>
还 款</w>
脾 气</w>
编 译</w>
烟 台</w>
曹 某</w>
呼 救</w>
合 肥
号 牌</w>
书 豪</w>
一 早</w>
直 言</w>
混 合</w>
服 用</w>
新 城</w>
天津 港</w>
图 案</w>
回 顾</w>
反 思</w>
中 原</w>
麻 将</w>
观 察
监护 室</w>
早 期</w>
感 冒</w>
废 弃</w>
合 约</w>
一 再</w>
6 6
负 债</w>
诚 信</w>
联 手</w>
破 案</w>
监察 局</w>
监察 厅</w>
洲 杯</w>
桥 梁</w>
来 不及</w>
有 毒</w>
旨 在</w>
复 制</w>
品 质</w>
i m
198 4年</w>
问 及</w>
轮 渡</w>
统 战</w>
男 篮</w>
整 整</w>
平 等</w>
山 镇</w>
失 主</w>
哈尔 滨
危 房</w>
分 之一</w>
传 奇</w>
人行 道</w>
享 有</w>
主 流</w>
ig h
2015-0 1
背 部</w>
考 证</w>
济 南市</w>
死 因</w>
欠 款</w>
差 别</w>
工商 局</w>
宣 告</w>
安 监局</w>
奥 斯
基 建</w>
协 定</w>
ckxx wx</w>
闻 讯</w>
邮 箱</w>
那 种</w>
远 离</w>
犯 罪
模 型</w>
探 测
按 摩</w>
技 术
墓 葬</w>
同性 恋</w>
南 北</w>
出 炉</w>
农 场</w>
公 墓</w>
丰 县</w>
遗 书</w>
表 决</w>
第 5</w>
服 役</w>
半 决赛</w>
制 毒</w>
减 肥</w>
义 乌</w>
下 手</w>
闽南 网</w>
追 缴</w>
谁 知</w>
求 救</w>
想 不到</w>
家 具</w>
发 力</w>
华尔 街</w>
2- 0</w>
驱 动</w>
通 行
访 华</w>
许 某</w>
药 材</w>
穿 过</w>
禁 毒</w>
相 机</w>
监 督
愿 望</w>
录 制</w>
将 军</w>
回 合</w>
口 中</w>
长 假</w>
调 动</w>
联 动</w>
网 购</w>
新 人</w>
扶 梯</w>
张 贴</w>
引 擎</w>
巴 车</w>
宜 昌</w>
台 市</w>
双 边</w>
参 赛</w>
占 有</w>
十 五</w>
And ro
陵 园</w>
降 雪</w>
邯 郸</w>
西 甲</w>
杨卫 泽</w>
晋 江</w>
慰 问</w>
德 赫
体 力</w>
上 将</w>
30 6</w>
行 使</w>
点 燃</w>
困 扰</w>
化 妆
伟 大</w>
为 名</w>
9 5.
设 想</w>
编 号</w>
第 十</w>
示 范</w>
检 查
板 指</w>
星 级</w>
尼 克斯</w>
小 杨</w>
家 门口</w>
关 键
h e
7 7
0 4
透 过</w>
警 戒</w>
裁 员</w>
绩 效</w>
生 子</w>
流 行</w>
查 阅</w>
期 望</w>
支 援</w>
扑 救</w>
感 叹</w>
大 国</w>
凌 空</w>
位 居</w>
代表 团</w>
不 易</w>
I n
9 4</w>
踪 影</w>
船 上</w>
疑 犯</w>
散 步</w>
手 法</w>
判 定</w>
以 为
Andro id</w>
199 0年</w>
近 年</w>
熟 人</w>
明 知</w>
小 刘</w>
哈尔滨 市</w>
南 国</w>
党 支部</w>
中 全会</w>
高尔 夫
骨 头</w>
进 度</w>
老 王</w>
瑞 海</w>
步行 者</w>
格 外</w>
据 此</w>
恐 惧</w>
岳 父</w>
地 下
分 工</w>
业 部</w>
7 月份</w>
2 2.
10 4.
轻 易</w>
谭 某</w>
行 贿
瘫 痪</w>
牛 奶</w>
查 封</w>
斯 科
执 照</w>
惠 州市</w>
寻 衅
任 何人</w>
鞋 子</w>
肇事 者</w>
考 上</w>
羊 城</w>
短 暂</w>
植 物</w>
出 差</w>
上 映</w>
10 0
５ 月</w>
龙 头</w>
风 波</w>
金 钱</w>
皇 家</w>
斯 ·
带 头</w>
宿 迁</w>
卷 入</w>
上 任</w>
b o
航 线</w>
积 分</w>
流 出</w>
抗日 战争</w>
城镇 化</w>
发 给</w>
医 科</w>
前 述</w>
刘 志
党 政
一 一</w>
颁 发</w>
融 合</w>
竣 工</w>
疏 导</w>
湿 度</w>
浦 东</w>
活 力</w>
泉 水</w>
急诊 科</w>
培 育</w>
听 证会</w>
交 换</w>
金 星</w>
装 有</w>
背 着</w>
相 反</w>
桌 子</w>
戒 指</w>
天 猫</w>
信 阳</w>
201 2</w>
随 机</w>
赠 送</w>
积 蓄</w>
流 浪
村 人</w>
底 下</w>
峰 会</w>
唱 歌</w>
代表 人</w>
ur l</w>
9 6</w>
3- 1</w>
200 0万</w>
2 4.
站 长</w>
流 产</w>
德 勒</w>
外 线</w>
嘴 里</w>
呼和浩 特市</w>
人民 日报</w>
主 演</w>
AP P</w>
过 关</w>
辩护 律师</w>
设 有</w>
西 侧</w>
舰 艇</w>
王 新
浓 烟</w>
森林 狼</w>
收 支</w>
心 脏
合肥 市</w>
口 罩</w>
igh t</w>
c e</w>
1- 0</w>
证 言</w>
电 厂</w>
用 水</w>
犹 豫</w>
特 区</w>
滞 留</w>
接 力</w>
抑 郁症</w>
扬 言</w>
如 说</w>
原 判</w>
南 通</w>
凤 凰
违 约</w>
看 似</w>
爱 好</w>
排 污</w>
尔 多
客 厅</w>
子 怡</w>
决 议</w>
两 者</w>
10 8.
苏 某</w>
致 力</w>
白 血
琐 事</w>
王 子</w>
港 股</w>
水 下</w>
无 数</w>
家 门</w>
城 际</w>
假 冒</w>
交 谈</w>
主 教练</w>
七 八
2015-07 -0
2 -</w>
耕 地</w>
科 学
环保 部</w>
晕 倒</w>
新 高</w>
搭 档</w>
战 部</w>
地 段</w>
医 学院</w>
分 散</w>
P G
= =
2015-0 6-
跑 道</w>
详 情</w>
议 书</w>
王志 强</w>
烧 烤</w>
残 忍</w>
急 性</w>
屋 里</w>
好 心</w>
自 信</w>
秦 皇
标 注</w>
德 拉
回 避</w>
几 千</w>
兄 妹</w>
停 工</w>
侦 察</w>
F I
阳 阳</w>
设 定</w>
言 语</w>
续 约</w>
此 处</w>
欺 骗</w>
榆 林</w>
护 理</w>
关 爱</w>
证 券
某 种</w>
手 枪</w>
心 疼</w>
德 斯</w>
同 一个</w>
限 期</w>
见 证</w>
水 源</w>
持 平</w>
抓 紧</w>
忍 不住</w>
心脏 病</w>
岛 礁</w>
审 计
国 脚</w>
劲 射</w>
停 业</w>
伤 痕</w>
ab y</w>
10 5.
面 子</w>
遗 留</w>
缺 口</w>
气 体</w>
未成 年</w>
德赫 亚</w>
座 谈会</w>
小 平</w>
寻 人</w>
大 致</w>
共 同
东 路</w>
骨 干</w>
防 控</w>
访 谈</w>
绿 灯</w>
留 给</w>
电 子
涉 毒</w>
教育 厅</w>
扳 平</w>
增 值</w>
势 头</w>
保 定
仲 裁</w>
阻 拦</w>
销 毁</w>
通缉 令</w>
透 社</w>
赔偿 金</w>
而 后</w>
绿 地</w>
相 差</w>
猛 龙</w>
果 然</w>
无 可
操 作
恐 龙</w>
应 有</w>
召 集</w>
儿 科</w>
6 8
隐 藏</w>
营 救</w>
篮 网</w>
穿 越</w>
登 场</w>
横 梁</w>
婷 婷</w>
内 幕</w>
中 标</w>
中 市</w>
t h</w>
鱼 塘</w>
路 透社</w>
豪 宅</w>
稍 稍</w>
查 证</w>
接 送</w>
张 志
头 条</w>
健 身</w>
严 峻</w>
上 空</w>
青 海
赵 晋</w>
茂 名</w>
紧 密</w>
精 心</w>
管理 层</w>
牌 子</w>
庄 村</w>
天 数</w>
加 重</w>
２０１ ４年</w>
颇 为</w>
江 门</w>
新 房</w>
徐纯 合</w>
出 入境</w>
驾驶 人</w>
门 店</w>
钱 江</w>
逃 脱</w>
起 步</w>
购房 者</w>
脸 部</w>
环卫 工</w>
步 行</w>
树 立</w>
携 程</w>
开 口</w>
增 值
咖 啡</w>
发 病</w>
动 画</w>
丧 失</w>
万 一</w>
4 00万</w>
连 云
聚 焦</w>
目 的
循 环</w>
周 永康</w>
债 权人</w>
供 电</w>
互 通</w>
防 线</w>
追 责</w>
解 放</w>
本 文</w>
本 届</w>
明 珠</w>
广 电</w>
大 片</w>
呼格 吉
向 前</w>
占 领</w>
创 意</w>
u n
MH 370</w>
骑 车</w>
白血 病</w>
新 京</w>
掘 金</w>
国 庆</w>
后 方</w>
作 弊</w>
中 期</w>
个 体</w>
2 7.
18 0</w>
重 型</w>
诈骗 罪</w>
清 洁</w>
注 销</w>
新 西
承 包
成 品</w>
总 决赛</w>
德 里</w>
商 会</w>
上 场</w>
预 报</w>
长 途</w>
铁 站</w>
输 液</w>
见 习</w>
茅 台</w>
科 室</w>
气 氛</w>
样 本</w>
接 报</w>
小 时候</w>
定 向</w>
奇 迹</w>
交通 局</w>
交 叉
专 职</w>
A n
10 7.
香 烟</w>
重 重</w>
红 十字
甜 蜜</w>
标 准
慕 阳</w>
惩 罚</w>
延 迟</w>
工 艺</w>
劳动 者</w>
前 夫</w>
全 都</w>
丝 毫</w>
专 访</w>
e d
C BA</w>
2 6.
跨 境</w>
赵 本山</w>
诱 惑</w>
缺 席</w>
相 亲</w>
流 血</w>
天 价</w>
大 事</w>
吴 哥</w>
发 展
前 不久</w>
关 门</w>
今 夏</w>
五 十</w>
16 0</w>
训 练
被 子</w>
永 昌</w>
民 办</w>
排 水</w>
呼 市</w>
南 车</w>
化妆 品</w>
停 运</w>
中 生</w>
上 次</w>
2 1.
18 -</w>
1 200</w>
迎 接</w>
艺 人</w>
突 击</w>
样 品</w>
机 上</w>
开 业</w>
家 园</w>
安倍 晋
国家 机关</w>
南 沙</w>
加 固</w>
食 药
起诉 书</w>
红十字 会</w>
立 马</w>
私 募</w>
睡 眠</w>
电 量</w>
推 迟</w>
恐 吓</w>
德 州</w>
展 览</w>
命 中
周 六</w>
卢 某</w>
制 约</w>
高 等
辍 学</w>
跳 舞</w>
结 识</w>
搭 载</w>
增值 税</w>
口 岸</w>
剧 烈</w>
出 庭</w>
公 证</w>
八 一</w>
198 2年</w>
韩 某</w>
镇 上</w>
跑 车</w>
经济 学</w>
纪 检
私 下</w>
白 领</w>
汉 中</w>
格 里
城 管局</w>
名 额</w>
可 怜</w>
出 身</w>
兑 现</w>
保定 市</w>
亮 点</w>
鲜 血</w>
青 岛市</w>
违 背</w>
氛 围</w>
来 源于</w>
打 通</w>
张 伟</w>
保 姆</w>
之 类</w>
I M
B C</w>
项 链</w>
绿 化</w>
破 产</w>
清 查</w>
替 代</w>
报 料</w>
宿 舍
地 处</w>
反 正</w>
刊 登</w>
任 用</w>
不 安</w>
17 -</w>
道 理</w>
调 价</w>
老 李</w>
维 吾
礼 品</w>
看 不到</w>
榜 单</w>
杨 秀
意 甲</w>
征 集</w>
干 事</w>
安倍晋 三</w>
安 监</w>
因 而</w>
嘉 宾</w>
历 经</w>
勇 气</w>
副 厅级</w>
制 裁</w>
PG C</w>
200 3.
贪 污
敦 促</w>
成 品
平 市</w>
学 期</w>
也 门</w>
不 动</w>
s i
200 6.
1 30</w>
齐 鲁</w>
驻 马
险 些</w>
逻 辑</w>
肢 体</w>
激 光</w>
智 库</w>
拘 禁</w>
折 合</w>
好 在</w>
增 至</w>
刘 翔</w>
军 衔</w>
公 关</w>
停车 位</w>
l o
领 到</w>
适 时</w>
聘 请</w>
洛 阳市</w>
河 水</w>
服务 区</w>
新 村</w>
手 脚</w>
我 县</w>
大 叔</w>
土 豪</w>
咸 阳</w>
公 厕</w>
佛 教</w>
4 3
车 位</w>
缺 失</w>
漫 画</w>
有 利</w>
报 社</w>
急 需</w>
弥 补</w>
复 查</w>
坠 入</w>
命 名</w>
可 夫</w>
不 远处</w>
三 四
２０ ０
街 上</w>
目的 地</w>
火 爆</w>
导 报</w>
口 径</w>
a o</w>
AT M</w>
30 00万</w>
魔 术</w>
马 逊</w>
陈 志
运 河</w>
赣 州</w>
街 坊</w>
营 造</w>
获 刑</w>
绵 阳</w>
空 白</w>
租 借</w>
暂 行</w>
文 科</w>
文 物
换 乘</w>
急 诊</w>
居住 证</w>
外 人</w>
壮 族</w>
国 内外</w>
各 位</w>
古 巴</w>
入 股</w>
人 工
中 等</w>
院 内</w>
逃 走</w>
触 犯</w>
莫 斯</w>
白 宫</w>
月 薪</w>
搭 乘</w>
打 印</w>
房 地产
变 为</w>
前 进</w>
划 分</w>
借 口</w>
50 亿</w>
.com .cn</w>
面 膜</w>
航 局</w>
统 战部</w>
竟 是</w>
生 素</w>
港 币</w>
接 触
掀 起</w>
投资 人</w>
成 年</w>
开 玩笑</w>
停 课</w>
业 务员</w>
上 限</w>
间 接</w>
节 日</w>
球 门</w>
爸 妈</w>
湛 江</w>
模 拟</w>
暴 打</w>
当 下</w>
引 力</w>
大 中
基 数</w>
图 像</w>
分 数
飙 车</w>
部 委</w>
课 堂</w>
要 性</w>
英 格兰</w>
离 世</w>
福 州市</w>
杨 某
成品 油</w>
形 容</w>
尽 可能</w>
华 德</w>
C PI</w>
9 0后</w>
15 分</w>
逃 亡</w>
购 置</w>
法 西斯</w>
横 幅</w>
榜 首</w>
无 缘</w>
命中 率</w>
南 山</w>
一 般
25 万</w>
黑 熊</w>
饮 酒</w>
防 雾</w>
输 入</w>
论 证</w>
罐 车</w>
生 猪</w>
现代 化</w>
潜 力</w>
彩 礼</w>
北 海</w>
全 长</w>
供 给</w>
9 8
１ 月</w>
红 旗</w>
留 意</w>
班 长</w>
物 体</w>
流 感</w>
泳 池</w>
报 酬</w>
托 管</w>
房 企</w>
广 场
参 照</w>
军 事
信访 局</w>
主 办</w>
9 7.
10 6.
骗 局</w>
首 尔</w>
青海 省</w>
赞 同</w>
网 点</w>
筹 集</w>
税 率</w>
珍 贵</w>
牛 肉</w>
焚 烧</w>
水果 刀</w>
收益 率</w>
战 友</w>
悬 挂</w>
往 常</w>
对 峙</w>
外 婆</w>
卡 车</w>
信息 化</w>
住 所</w>
9 7</w>
2 1-</w>
间 谍</w>
病 历</w>
环 评</w>
火 车票</w>
浪 网</w>
无 意</w>
提 速</w>
所 得
想 想</w>
家 境</w>
季 后
啤 酒</w>
分数 线</w>
僵 局</w>
198 7年</w>
财 新</w>
节 约</w>
胎 儿</w>
独 特</w>
温 暖</w>
无 所
圈 子</w>
回 收</w>
卡 通</w>
内 阁</w>
一 体</w>
随 之</w>
议 论</w>
计生 委</w>
视 察</w>
老 大</w>
民 主
株 洲</w>
未 婚</w>
操 纵</w>
接 替</w>
找 回</w>
建 房</w>
增 长
中 度</w>
三 门
201 1.
高 效</w>
购 物
课 题</w>
理 会</w>
海 波</w>
有 害</w>
晚 饭</w>
新 生</w>
新 浪网</w>
大 肆</w>
合 资</w>
危 化
力 帆</w>
偶 然</w>
交 叉</w>
上 证</w>
VI D
高 新
通 奸</w>
股 本</w>
恶 性</w>
忽 视</w>
往 返</w>
受 访</w>
亚 军</w>
ti on</w>
霍 华德</w>
醉 驾</w>
角 落</w>
蟒 蛇</w>
王思 聪</w>
毫 不</w>
比 如说</w>
景 观</w>
改 制</w>
年 终
崔 某</w>
小 美</w>
商 贸</w>
吉林 市</w>
偷 走</w>
VID EO</w>
23 -</w>
难 免</w>
陈 文
车 库</w>
路 军</w>
欧 阳
接 入</w>
屋 子</w>
寻衅 滋事</w>
好 者</w>
和 解</w>
双 向</w>
克 拉
充 足</w>
12 万</w>
辞 退</w>
看 待</w>
申 鑫</w>
生活 费</w>
歧 视</w>
步 伐</w>
明 明</w>
已 婚</w>
十 四</w>
刀 具</w>
健 林</w>
亚 冠</w>
e c
进 军</w>
议 会</w>
第 6</w>
物 理</w>
模 仿</w>
榆 林市</w>
杜 绝</w>
暴 涨</w>
放 置</w>
成 就</w>
总 会</w>
张 学
开 学</w>
年终 奖</w>
干 脆</w>
出租 房</w>
为 人</w>
业 界</w>
一 大
３ 日</w>
难 受</w>
阿 斯
钢 筋</w>
通 往</w>
自 拍</w>
省 会</w>
提 请</w>
探测 器</w>
按 时</w>
季后 赛</w>
大 儿子</w>
周 本
任 性</w>
交 涉</w>
198 9年</w>
西 区</w>
独 生
气 味</w>
报 警
意 志</w>
建 平</w>
存 储</w>
危化 品</w>
协 作</w>
仇 和</w>
I C</w>
E T
３ ０
逃 生</w>
脱 落</w>
祖 名</w>
确 立</w>
百 货</w>
用 力</w>
新西 兰</w>
弹 药</w>
尔 顿</w>
小 幅</w>
失 业</w>
乡 市</w>
专 人</w>
a i
S A</w>
9 7
6 5
198 6年</w>
08 -
黄 蜂</w>
音 乐
着 力</w>
水 管</w>
水 市</w>
抄 袭</w>
批 示</w>
底 部</w>
崩 溃</w>
外 观</w>
售 票</w>
名 誉</w>
卫 计委</w>
上 路</w>
上 缴</w>
vi d</w>
ro u
黄 晓明</w>
转 为</w>
藏 匿</w>
美 金</w>
相 约</w>
爱 好者</w>
汪 峰</w>
曼 谷</w>
施 行</w>
斯 塔</w>
学 科</w>
复 牌</w>
培训 班</w>
口 子</w>
互 联</w>
V S</w>
饲 养</w>
通 市</w>
连 忙</w>
疑 点</w>
犯罪 分子</w>
清 点</w>
林 业</w>
廊 坊</w>
小 伙伴</w>
将 领</w>
大 赛</w>
咱 们</w>
吃 惊</w>
军 舰</w>
偶 像</w>
停 下</w>
中 小学</w>
上 交</w>
一 侧</w>
2014- 11
198 5年</w>
高 位</w>
飞 船</w>
降 落</w>
起 身</w>
经济 学家</w>
督 查</w>
深 深</w>
更 改</w>
德 市</w>
强 劲</w>
如 同</w>
失 职</w>
事 态</w>
201 0</w>
黄 宏</w>
长 远</w>
辖 市</w>
请 假</w>
河 边</w>
机 票</w>
文 书</w>
心 区</w>
彭 某</w>
国际 化</w>
哥 伦
创 办</w>
出租 汽车</w>
俊 晖</w>
代 替</w>
二 期</w>
专 家
警 队</w>
生 于</w>
廉 洁
定 制</w>
地 域</w>
加 州</w>
5 000万</w>
阿 富
阿富 汗</w>
诞 生</w>
篮 下</w>
白 云
树 林</w>
时 捷</w>
情 景</w>
忽 然</w>
幸 好</w>
幕 后</w>
客 运
威廉 姆斯</w>
回 扣</w>
南 路</w>
保 时捷</w>
25 .
默 克尔</w>
责 成</w>
袋 子</w>
王 世
氰 化
房 租</w>
填 报</w>
南 阳</w>
单 纯</w>
功 夫</w>
伸 手</w>
9 00</w>
14 -</w>
远 程</w>
节 假日</w>
脚 下</w>
美 食</w>
稍 微</w>
省 人大</w>
栏 杆</w>
杰 伦</w>
摄 影
度 假</w>
工 信
化 市</w>
今 早</w>
不 一</w>
跟 进</w>
西 宁</w>
涵 盖</w>
水 泥
抓 好</w>
惩 处</w>
员 国</w>
合作 社</w>
历 史
促 销</w>
估 算</w>
交叉 口</w>
东 区</w>
膝 盖</w>
维 稳</w>
管 所</w>
穆 里
王 敏</w>
新 版</w>
撤 职</w>
拼 命</w>
张 楠</w>
局 级</w>
尔 特
家 里人</w>
大 都</w>
大 选</w>
办 学</w>
前 夕</w>
决 定书</w>
余 某</w>
东南 亚</w>
东 侧</w>
世 锦赛</w>
w it
10 1</w>
趁 机</w>
资 费</w>
筹 备</w>
点 名</w>
模 样</w>
斯 特</w>
教 学
房 源</w>
快 攻</w>
市 人</w>
南 区</w>
使 命</w>
传 承</w>
中 药</w>
中 区</w>
一 来</w>
一 中</w>
T h
纵 火</w>
沙 发</w>
导 师</w>
十 二
初 一</w>
刘 晓
依 次</w>
二 手</w>
7 8
200 0.
199 1年</w>
- 20</w>
首 日</w>
阴 影</w>
辟 谣</w>
社 科院</w>
煤 气</w>
来 电</w>
昔 日</w>
搜 查</w>
女 排</w>
大 胆</w>
周本 顺</w>
取 代</w>
e t
2 3.
高 龄</w>
首 要</w>
起 码</w>
衔 接</w>
演 唱
来 回</w>
无 线</w>
揭 秘</w>
损 毁</w>
承 办</w>
广场 舞</w>
工作 室</w>
化学 品</w>
出 版
主 罚</w>
鄂 尔多
脚 印</w>
罚 单</w>
海 事</w>
沉 船</w>
气 管</w>
椅 子</w>
方 位</w>
斯 蒂
患 儿</w>
总 值</w>
席 位</w>
带 队</w>
埃 及</w>
后 勤</w>
参 与
主 观</w>
中 途</w>
2 9.
遗 弃</w>
追 赃</w>
财 年</w>
积 极
渎 职</w>
清 洗</w>
楼 道</w>
改 装</w>
执 业</w>
战 后</w>
小 小</w>
对 性</w>
宝 鸡</w>
喜 爱</w>
减 弱</w>
不 好
www. bjne
www.bjne ws
www.bjnews .com.cn</w>
200 1.
19 -</w>
首 饰</w>
隶 属</w>
防 滑</w>
长 度</w>
轰 炸
轨 迹</w>
而 知</w>
终 审</w>
离 异</w>
电 话
玻 璃
惊 喜</w>
忍 受</w>
弟 子</w>
客 流</w>
安 静</w>
女 星</w>
外 伤</w>
填 写</w>
塞 尔
和 平
同 伙</w>
价 值
2015-06 -0
首 度</w>
进 站</w>
跳 水</w>
路 表</w>
赵 志
竞 选</w>
洗 手
无 偿</w>
打 招呼</w>
布 朗</w>
I T</w>
2015 .
风 景</w>
送 礼</w>
达 州</w>
观 测</w>
清 算</w>
浪 漫</w>
本 田</w>
户 口
公 约</w>
i a</w>
F ac
30 .
自 贸</w>
电 梯
特 约</w>
寺 庙</w>
原 谅</w>
冬 天</w>
光 大</w>
交 管</w>
五 六
W i
20 -</w>
2 8.
钟 某</w>
身 价</w>
虚 构</w>
海 岸</w>
有 效
普 森</w>
救 援
挑 选</w>
市 内</w>
塌 方</w>
哪 怕</w>
发 烧</w>
北 风</w>
再 审</w>
公 立</w>
使用 权</w>
中 药材</w>
中 奖</w>
t ou
l a
iPhon e
5 00
零 时</w>
遵 循</w>
章 程</w>
民政 部门</w>
模 特</w>
服务 器</w>
新 民
拆 迁
微 笑</w>
巩 固</w>
尤 文</w>
塌 陷</w>
坠 毁</w>
咳 嗽</w>
九 江</w>
主 政</w>
不 符</w>
an g
逐 一</w>
运 转</w>
离 队</w>
王 小
摧 毁</w>
抵 制</w>
基 尼</w>
史 密
北 侧</w>
创 建</w>
典 礼</w>
钞 票</w>
蔡 某</w>
楼 层</w>
暴 风</w>
明 日</w>
日 媒</w>
探 望</w>
拨 通</w>
意 向</w>
心 跳</w>
堪 称</w>
城 墙</w>
动 脉</w>
冥 币</w>
八 路军</w>
伸 出</w>
伤 心</w>
亚 泰</w>
6 00万</w>
2014- 12
车 组</w>
超 群</w>
裂 缝</w>
舜 天</w>
精 准</w>
空 地</w>
玲 玲</w>
河 市</w>
来 得
杜 文</w>
暗 示</w>
执 政</w>
惨 剧</w>
层 层</w>
女 孩子</w>
增 量</w>
刑 讯</w>
为 首</w>
eb ook</w>
e n</w>
这 儿</w>
评 选</w>
激 发</w>
演唱 会</w>
欺 诈</w>
方 某</w>
整 天</w>
接 种</w>
屠 杀</w>
型 号</w>
口 袋</w>
其 妻</w>
AP EC</w>
4 00
高 通</w>
高 调</w>
赶 回</w>
贩 子</w>
行 榜</w>
老 实</w>
看 守</w>
目 光</w>
物 价
无 辜</w>
拘 役</w>
抽 调</w>
导 航</w>
四 周</w>
发 地</w>
午 饭</w>
十 足</w>
公 主</w>
200 2.
逼 供</w>
荆 州</w>
英 九</w>
田 某</w>
法 学院</w>
毛 毛</w>
新 政</w>
排 行榜</w>
当 面</w>
巨 响</w>
小 周</w>
季 节</w>
公 证
停 电</w>
偏 僻</w>
c o
201 1</w>
11 5</w>
８ 日</w>
５ 日</w>
雷 阵雨</w>
载 有</w>
置 换</w>
练 习</w>
索 尼</w>
理事 会</w>
涉 事</w>
早 前</w>
强 攻</w>
居 委会</w>
大河 报</w>
大 巴车</w>
低 保</w>
人 心</w>
亲 子</w>
乡 政府</w>
中 海</w>
不 怕</w>
三 环</w>
12 306</w>
避 风</w>
贪污 罪</w>
表 彰</w>
船 员</w>
第三 方</w>
格 林</w>
打 牌</w>
成 员国</w>
奥 运会</w>
周 杰伦</w>
倾 斜</w>
付 费</w>
wit ter</w>
10 9.
较 量</w>
超 级
记 本</w>
绯 闻</w>
教 官</w>
廉洁 自律</w>
市 级</w>
州 人</w>
反 恐</w>
刷 新</w>
倒 车</w>
作 坊</w>
传 说</w>
一 向</w>
Pa d</w>
30 亿</w>
13 -</w>
驱 车</w>
隔 离
金 某</w>
观 者</w>
某 个</w>
无 线
惊 吓</w>
岗 区</w>
宋 某</w>
奖 项</w>
发 行
原 先</w>
rou p</w>
2015-0 1-
2014-0 9
16 -</w>
预 订</w>
顺 着</w>
送 达</w>
辩 称</w>
西 奥</w>
芳 芳</w>
繁 荣</w>
盲 目</w>
斯 堡</w>
归 来</w>
布 雷
国 税局</w>
力 气</w>
低 头</w>
9 月份</w>
议 院</w>
聪 明</w>
湘 潭</w>
清 白</w>
明 火</w>
搜 集</w>
抽 查</w>
常 人</w>
少 于</w>
再 说</w>
偷 拍</w>
做 事</w>
上 山</w>
T witter</w>
页 面</w>
道 口</w>
逾 期</w>
致 命</w>
点 钟</w>
毒 贩</w>
掩 埋</w>
恒 生</w>
布 置</w>
好 莱
咨 询
同 日</w>
刑 事
个 性</w>
6 9
15 -</w>
６ 日</w>
过 节</w>
过 分</w>
试 行</w>
耽 误</w>
经 贸</w>
立 法
空 饷</w>
焦 急</w>
朝 阳区</w>
暧 昧</w>
挡 风</w>
抑 制</w>
扩 建</w>
手术 室</w>
少 量</w>
处 费</w>
国 足</w>
哥伦 比亚</w>
史密 斯</w>
取 款</w>
发 酵</w>
二 季度</w>
中 考</w>
一 对</w>
199 7.
默 默</w>
针 对性</w>
重 申</w>
配 件</w>
货 运</w>
评 级</w>
胜 局</w>
王 永
爆 竹</w>
滚 滚</w>
液 体</w>
汇 金</w>
机 械
时 光</w>
日 报网</w>
拍 卖
张 文
小 路</w>
姐 弟</w>
动 用</w>
削 减</w>
冬 季</w>
公 章</w>
传 染
乐 园</w>
M a
轮 胎</w>
裸 照</w>
股 份
王天 朝</w>
海 报</w>
普 及</w>
承 接</w>
富 士
宿舍 楼</w>
学 籍</w>
好 处费</w>
吸 引力</w>
勉 强</w>
元 素</w>
例 外</w>
仕 途</w>
18 万</w>
龚 卫国</w>
饰 演</w>
防 盗
迟 到</w>
轰炸 机</w>
认 购</w>
表 白</w>
航 行</w>
纸 条</w>
索 取</w>
磋 商</w>
画 家</w>
申请 人</w>
烧 毁</w>
暑 期</w>
忙 碌</w>
存 单</w>
堵 塞</w>
友 谊</w>
匕 首</w>
亿 万</w>
二手 房</w>
不 宜</w>
下 落</w>
７ 日</w>
齐 全</w>
饭 菜</w>
闺 蜜</w>
退 回</w>
连 败</w>
省 内</w>
款 人</w>
检察 长</w>
敲 门</w>
成 指</w>
悲 痛</w>
开 办</w>
尔 多</w>
台 阶</w>
准 入</w>
公 办</w>
不 必</w>
i f
Fac ebook</w>
黑 社会</w>
马 车</w>
颁 布</w>
长 官</w>
车 轮</w>
议 题</w>
装 箱</w>
莱 斯</w>
而 来</w>
老 院</w>
简 易</w>
票 据</w>
存 折</w>
墙 壁</w>
商务 部</w>
北 路</w>
加 以</w>
余 远
上 周五</w>
22 -</w>
郊 区</w>
通 缉</w>
行 进</w>
福 德</w>
消 毒</w>
汤 普森</w>
早 早</w>
改 正</w>
张 某
废 品</w>
小 霞</w>
将 要</w>
奶 茶</w>
地 铁站</w>
嘴 巴</w>
取 胜</w>
保 守</w>
中小 企业</w>
中 西部</w>
两 边</w>
s p</w>
0. 5</w>
邪 教</w>
退 票</w>
过 期</w>
赋 予</w>
衡 水</w>
联 储</w>
绑 匪</w>
笔 记本</w>
空 旷</w>
物价 局</w>
源 头</w>
正 厅级</w>
欺 负</w>
数 据
安全 性</w>
军 官</w>
公 公</w>
余远 辉</w>
人 权</w>
４ 日</w>
高 峰
首 富</w>
隐 蔽</w>
行 李
落 入</w>
脑 袋</w>
禁 令</w>
沉 重</w>
条 约</w>
指 引</w>
拉 德</w>
庄 市</w>
容 量</w>
大 庆</w>
南 海
30 0
长 治
长 春市</w>
过 失</w>
语 音</w>
致 歉</w>
经 纪</w>
细 菌</w>
糖 尿
显 现</w>
文物 局</w>
所得 税</w>
对 劲</w>
后 门</w>
厂 区</w>
分 流</w>
党政 机关</w>
人 流</w>
丹 丹</w>
st at
200 8.
起 因</w>
竞 赛</w>
监管 层</w>
盐 城</w>
疑 惑</w>
王 文
燃 料</w>
港 市</w>
测 量</w>
洪 波</w>
法 晚</w>
来 看</w>
敬 老院</w>
恰 好</w>
工 伤</w>
官 微</w>
安 东
婚 宴</w>
司 令</w>
博 弈</w>
办 证</w>
分 红</w>
全 额</w>
× ×</w>
25 00</w>
1- 1</w>
里 程</w>
连 锁</w>
迎 战</w>
蛋 糕</w>
细 致</w>
糖尿 病</w>
监 护</w>
来得 及</w>
扶 持</w>
总 价</w>
寿 县</w>
富 裕</w>
套 餐</w>
器 械</w>
凯 尔特
克 莱
事 局</w>
乐 乐</w>
不 禁</w>
xj b</w>
bjne ws</w>
1 40</w>
１ ０</w>
研究 室</w>
目 录</w>
澳 洲</w>
湿 地</w>
斗 殴</w>
放 宽</w>
尤 文
封 堵</w>
宜 宾</w>
头 号</w>
垫 付</w>
名 牌</w>
半 天</w>
前 段</w>
入 侵</w>
人社 局</w>
中国 银行</w>
专 注</w>
9 4.
随 手</w>
长 相</w>
试 卷</w>
直 辖市</w>
班 车</w>
渤 海</w>
本 队</w>
拉 莫斯</w>
报 告
打 扫</w>
德 甲</w>
库 尔
安 卓</w>
堵 住</w>
只 不过</w>
兴 市</w>
兑 换</w>
促 使</w>
侵 略</w>
会 议
中 山市</w>
5 3
走 过</w>
质 检</w>
脸 色</w>
约翰 逊</w>
系 统
第 7</w>
激 情</w>
淡 定</w>
洋 洋</w>
水 电</w>
民 政</w>
格 力</w>
早 餐</w>
数 万</w>
散 发</w>
拥 抱</w>
实 质</w>
天 堂</w>
大 宗</w>
国 米</w>
商 城</w>
原 始</w>
包 扎</w>
军 用</w>
再 生</w>
六 七</w>
代 码</w>
风 暴</w>
远 射</w>
蒂 奇</w>
苏 荣</w>
绝 杀</w>
狗 狗</w>
牟 利</w>
燃 油</w>
注 入</w>
揭 开</w>
抢 修</w>
处 以</w>
地下 室</w>
启 用</w>
中 队长</w>
中 村</w>
一大 早</w>
韩 元</w>
适 度</w>
转 弯</w>
诉 讼
补 办</w>
纠 结</w>
百 亿</w>
港 区</w>
沿 途</w>
李 春
新 文化</w>
数 次</w>
支 持
妇 联</w>
增 大</w>
合 伙</w>
可 怕</w>
受 骗</w>
人社 部</w>
三分 之一</w>
5 4
.com /
高 清</w>
蹊 跷</w>
购 票</w>
西 瓜</w>
葛 天</w>
窝 案</w>
省 部级</w>
特 斯</w>
特 斯
特 尔</w>
教 练
放 生</w>
干 细胞</w>
希 拉里</w>
工作 者</w>
小 孩子</w>
小 儿子</w>
定 于</w>
大 暴雨</w>
助 手</w>
制造 商</w>
凯尔特 人</w>
凭 证</w>
依 托</w>
令 人
200 亿</w>
获 知</w>
舅 舅</w>
清 除</w>
有 名</w>
景 德
搁 浅</w>
抢劫 罪</w>
房产 证</w>
巡 航</w>
导 向</w>
富士 康</w>
宋 利</w>
学 业</w>
喇 叭</w>
取 缔</w>
南 充
公安 局长</w>
光 耀</w>
丽 丽</w>
为 生</w>
中 山
10 月份</w>
1- 2</w>
1 10
频 率</w>
质 性</w>
调 集</w>
空 袭</w>
种 类</w>
祖 国</w>
留 学生</w>
热 爱</w>
标 价</w>
时间 表</w>
摊 主</w>
拉 扯</w>
抛 弃</w>
房 贷</w>
意 料</w>
快 捷</w>
廖 某</w>
履 职</w>
就 近</w>
威 尔
围 堵</w>
元/ 平方米</w>
传 唤</w>
不 法
不 乏</w>
下 角</w>
ra tion</w>
g e</w>
C T</w>
199 6.
199 5.
高 架
除 非</w>
阳 性</w>
身 旁</w>
赛 后</w>
爆 出</w>
烫 伤</w>
最 先</w>
放 行</w>
摆 摊</w>
执法 局</w>
惯 例</w>
工信 部</w>
小 便</w>
外 贸</w>
器 材</w>
前 沿</w>
刘 汉</w>
侧 面</w>
8 0后</w>
2- 1</w>
- 8
齐 齐
食 物
绝 大部分</w>
称 呼</w>
法 新社</w>
治 国</w>
李 雪
早 年</w>
指 向</w>
成 年人</w>
懂 事</w>
慰 安
强 拆</w>
募 捐</w>
副 教授</w>
例 子</w>
F i</w>
长 期
神 奇</w>
理工 大学</w>
换 上</w>
拦 住</w>
巡视 员</w>
小 文</w>
外 形</w>
处理 厂</w>
叶 某</w>
乳 业</w>
丁 某</w>
IM F</w>
韦 德</w>
零 售
越 位</w>
警 务</w>
标 语</w>
权 限</w>
新生 儿</w>
拉 动</w>
大 方</w>
围 殴</w>
内 马尔</w>
兴 业</w>
侄 子</w>
乘 务员</w>
不法 分子</w>
一 千</w>
CF P</w>
飙 升</w>
遗 嘱</w>
被 动</w>
萎 缩</w>
网 店</w>
绍 兴</w>
科 技
碾 压</w>
李 志
杀 手</w>
春 成</w>
放 大</w>
接 手</w>
托 人</w>
巡 逻
岳 阳</w>
妨 碍</w>
大 面积</w>
大 同</w>
复 核</w>
土 豆</w>
咖 啡
勇 敢</w>
元 区</w>
储 存</w>
产业 链</w>
之 上</w>
o s
S P
零 部件</w>
赵志 红</w>
赃 物</w>
融 入</w>
有 趣</w>
施工 方</w>
小 行星</w>
娱乐 圈</w>
娘 家</w>
君 安</w>
可 靠</w>
华 南</w>
划 定</w>
分 割</w>
佩 德罗</w>
不 通</w>
不 详</w>
m l</w>
IC U</w>
３ 年</w>
顶 层</w>
雨 水</w>
难 民</w>
近 来</w>
路 虎</w>
读 本</w>
现 役</w>
潇 湘</w>
杨秀 珠</w>
智 力</w>
掉 落</w>
延 期</w>
庆 安</w>
崛 起</w>
屁 股</w>
尼 亚
土 壤</w>
售 卖</w>
包 围</w>
党 工委</w>
专家 组</w>
i OS</w>
４ 月</w>
限 额</w>
通 州</w>
进 口
转 换</w>
腹 泻</w>
约 会</w>
笑 容</w>
树 木</w>
尤文 图
家 电</w>
头 晕</w>
启 事</w>
同 胞</w>
书 籍</w>
w id
11 9</w>
高峰 期</w>
越 狱</w>
莆 田</w>
绿 化
纪检 组</w>
纪 录
穿 着</w>
歉 意</w>
摊 位</w>
接 通</w>
挂 钩</w>
招 商
抽 烟</w>
小 编</w>
富 有</w>
善 良</w>
原 材料</w>
卡 特</w>
南 侧</w>
上 篮</w>
tou ti
鲜 明</w>
靠 谱</w>
那 年</w>
补 时</w>
羡 慕</w>
福 特</w>
新 任</w>
接触 者</w>
戒 毒</w>
安 置
商 讨</w>
同 情</w>
农 户</w>
兵 团</w>
克里 米
充 当</w>
不 论</w>
不 容
1. 2</w>
防 务</w>
警 务
芜 湖</w>
老 兵</w>
第 9</w>
程 慕阳</w>
破 损</w>
白 恩
照 看</w>
开 行</w>
头 像</w>
发 自</w>
协 议书</w>
军 演</w>
内 线</w>
不 解</w>
oo g
198 3年</w>
1. 8
顶 级</w>
金 斯</w>
邮 政</w>
逃 窜</w>
退 款</w>
苏 迪
老 两口</w>
组织 者</w>
球 衣</w>
无 视</w>
名 校</w>
叫 做</w>
光 线</w>
保 卫</w>
保 住</w>
侥 幸</w>
会 面</w>
任 期</w>
一 经</w>
9 0
5 .</w>
轮 椅</w>
评 为</w>
职 守</w>
突 入</w>
生 物
火 化</w>
死 缓</w>
推 倒</w>
引 爆</w>
寝 室</w>
宴 请</w>
姑 姑</w>
妇 幼</w>
哈 尔</w>
号 称</w>
双 重</w>
医 治</w>
关 切</w>
公 益
假 条</w>
亚 马逊</w>
不好 意思</w>
8 月份</w>
199 8.
６ 月</w>
避 雨</w>
达 尔</w>
辅 警</w>
赛 场</w>
纪录 片</w>
矿 泉水</w>
白恩 培</w>
理 学</w>
照 料</w>
曙 光</w>
无 锡
敌 人</w>
护 卫
德 森</w>
完 好</w>
劳 务</w>
从 没</w>
二 度</w>
两 千</w>
下 雨</w>
wid th</w>
ul l</w>
he ight</w>
8 7
3 3.
09 -
长 顺</w>
航 天
痛 哭</w>
畅 通</w>
牙 齿</w>
深 成指</w>
沙 特</w>
民 用</w>
敛 财</w>
搜 捕</w>
推 开</w>
执 教</w>
布 斯</w>
受 不了</w>
卡 西
判 罚</w>
几 十万</w>
其 子</w>
体 会</w>
代理 人</w>
乙 肝</w>
i t</w>
10 5</w>
0 7月</w>
龙 虾</w>
辅 导</w>
瓦 斯</w>
步 入</w>
木 棍</w>
敲诈 勒索</w>
控制 人</w>
张 馨予</w>
国土 局</w>
单 一</w>
前 科</w>
准 考证</w>
侦 查
35 分</w>
15 0万</w>
记 过</w>
衰 竭</w>
联 系
漫 长</w>
无 期</w>
携 手</w>
尤文图 斯</w>
呼格吉 勒
发 热</w>
厂 长</w>
十 三</w>
区 划</w>
农 作物</w>
东 北部</w>
闲 置</w>
药 业</w>
缓 期</w>
王新 红</w>
王 大
游 行</w>
桥 镇</w>
明 书</w>
昌 县</w>
换 人</w>
废 墟</w>
工程 款</w>
厨 师</w>
剧 情</w>
元 化</w>
产 科</w>
上 当</w>
i Pad</w>
e l</w>
e a
麦 克
面 具</w>
集 装箱</w>
防 暴雨</w>
贝 尔
美 联储</w>
红 场</w>
白 云</w>
流 向</w>
权 健</w>
朱 立
旅游 业</w>
小 事</w>
宁 波
夜 晚</w>
处理 器</w>
坚 守</w>
友 人</w>
动 弹</w>
伙 人</w>
价值 观</w>
一个 个</w>
199 4.
门 柱</w>
逝 世</w>
送 入</w>
西 县</w>
而 出</w>
真 心</w>
白 山</w>
特 地</w>
熟 睡</w>
烈 士
海 油</w>
次 于</w>
核 潜艇</w>
有 钱</w>
晓 峰</w>
小 宝</w>
审计 署</w>
定 点</w>
基 准</w>
告 破</w>
卡 希尔</w>
动 车组</w>
剧 组</w>
内 科</w>
中 小</w>
美 术</w>
眼 下</w>
百 年</w>
烧 烤
模 范</w>
抬 头</w>
悲 伤</w>
幕 式</w>
小 明</w>
定 义</w>
奋 力</w>
垂 直</w>
国 泰</w>
呼格吉勒 图</w>
吕 梁</w>
先 前</w>
保 利</w>
佩 戴</w>
乡 亲</w>
严 密</w>
n ull</w>
3- 0</w>
3 5.
197 8年</w>
额 外</w>
视 觉</w>
绕 行</w>
特 种</w>
机 长</w>
惊 险</w>
店 面</w>
平 壤</w>
展 出</w>
小 华</w>
小 刚</w>
宣传 片</w>
原 创</w>
出 演</w>
作 证</w>
v u</w>
stat us</w>
du ration</w>
S T</w>
3 2.
16 :
饮 用水</w>
闹 事</w>
配 方</w>
贵 阳市</w>
质 问</w>
认 出</w>
蒙 古
继 承
第 1</w>
科 维奇</w>
玩 忽
派 遣</w>
残 留</w>
森 浩</w>
村 镇</w>
李 娜</w>
机 身</w>
容 忍</w>
套 现</w>
商 丘</w>
同 盟</w>
同 村</w>
压 缩</w>
南充 市</w>
匿 名</w>
3 5%</w>
郜 林</w>
适 量</w>
警 情</w>
西 湖</w>
莫 雷
艺 谋</w>
社 长</w>
知 晓</w>
生 死</w>
珠 宝</w>
温 馨</w>
河 镇</w>
江 北</w>
当 作</w>
室 友</w>
多 元化</w>
古 墓</w>
功 率</w>
刑 期</w>
减 免</w>
东 阳</w>
o r</w>
8 0
驶 入</w>
马拉 松</w>
马 英九</w>
迪 士
过 剩</w>
辅 助</w>
转 化</w>
跨 国</w>
组织 部长</w>
纪念 日</w>
立 柱</w>
煤 气
欠 条</w>
村 主任</w>
更 是</w>
搜 狐</w>
抽 签</w>
户 型</w>
徒 步</w>
年 间</w>
埃 弗
喊 话</w>
勘 探</w>
动 向</w>
前 者</w>
出 头</w>
主 治
中间 人</w>
0 时</w>
高 大</w>
高 二</w>
钓 鱼</w>
邯 郸
营业 执照</w>
菲 特</w>
苏迪 罗</w>
聘 用</w>
神 情</w>
盘 面</w>
焦 虑</w>
沧 州</w>
方 针</w>
方 正</w>
悬 崖</w>
常 住</w>
团 委</w>
卡 梅
准 则</w>
会 场</w>
中 青
N A
201 8年</w>
- 15</w>
龙 某</w>
长 寿</w>
避 开</w>
迪士 尼</w>
路 径</w>
第 8</w>
散 布</w>
探 讨</w>
得 了</w>
当 着</w>
封 存</w>
宣 言</w>
好莱 坞</w>
大 脑</w>
外 套</w>
卫 冕</w>
僵 持</w>
低 射</w>
oog le</w>
震 东</w>
陵 县</w>
运 城</w>
赶 上</w>
独生 子女</w>
爵 士</w>
煤 业</w>
潜 入</w>
汉 子</w>
枪 击</w>
敢 于</w>
救 生
扩 展</w>
快 递
富 二代</w>
in g
e d</w>
G oogle</w>
3 1.
16 00</w>
鞭 炮</w>
阳 河</w>
防 火</w>
追 逐</w>
迈 克
警 服</w>
行 踪</w>
蓝 天</w>
职 员</w>
组 赛</w>
眼 神</w>
省 政协</w>
渴 望</w>
毛 泽
毛 巾</w>
来 临</w>
接 应</w>
招 投标</w>
性 化</w>
庭 长</w>
国 籍</w>
务 工
不 法</w>
l i
7 0万</w>
12 -</w>
领导 人员</w>
防 汛</w>
阜 阳</w>
起 点</w>
节 点</w>
纸 币</w>
神 州</w>
步 步</w>
查 清</w>
架 构</w>
斯 塔
手 铐</w>
德 ·
咸 阳市</w>
单 日</w>
凶 者</w>
公 投</w>
公 募</w>
体 罚</w>
书 包</w>
15 亿</w>
黄 石</w>
零 食</w>
除 夕</w>
车 费</w>
货 量</w>
账 目</w>
诺 维奇</w>
船 厂</w>
维吾 尔</w>
第十 一</w>
确 切</w>
盘 点</w>
盘 中</w>
生 育
搭 建</w>
掩 盖</w>
执行 官</w>
屋 顶</w>
奋 斗</w>
善 款</w>
后 场</w>
C N
龙 岩</w>
银 川</w>
运输 部</w>
踪 迹</w>
贫 困
誉 为</w>
纺 织</w>
海 拔</w>
改 判</w>
挽 救</w>
悬 念</w>
忠 诚</w>
开 封</w>
工业 园区</w>
小 组赛</w>
奉 献</w>
大 将</w>
六 旬</w>
全 区</w>
乌 市</w>
c m</w>
陶 某</w>
铁 道
行政 部门</w>
融 资
获 胜</w>
联合 会</w>
稳 健</w>
示 牌</w>
灯 光</w>
水 池</w>
欧 元区</w>
无 限</w>
斯 托
放 量</w>
摘 要</w>
排 涝</w>
扶 贫</w>
打 扮</w>
懂 得</w>
弹 道
大 客车</w>
城 中村</w>
佩 斯</w>
争 端</w>
之 路</w>
不 在
M ar
0 1
霆 锋</w>
限 度</w>
迄 今</w>
被 害</w>
蓝 筹
苏 军</w>
箱 子</w>
第 二
眼 球</w>
火 机</w>
武 长顺</w>
欣 赏</w>
朱立 伦</w>
未 遂</w>
斯 诺
救援 队</w>
政 党</w>
挑 衅</w>
扳 回</w>
开 采</w>
实 质性</w>
天 桥</w>
外 籍</w>
印 章</w>
勾 结</w>
动 静</w>
刘 德
享 年</w>
交 友</w>
v e</w>
2015-0 2
高 楼</w>
难 得</w>
逆 行</w>
轮 流</w>
细 化</w>
福 彩</w>
示 意</w>
热 烈</w>
溪 县</w>
油 门</w>
时 分</w>
改 革
快 车</w>
川 区</w>
太 平</w>
围 攻</w>
哽 咽</w>
周 口</w>
发 明</w>
发 声</w>
发 作</w>
危 急</w>
几 率</w>
关 税</w>
一 年
一 号</w>
7 6
马 里
顶 部</w>
震 慑</w>
银 监会</w>
贴 吧</w>
评 审</w>
街 道
艳 敏</w>
美 美</w>
漂 浮</w>
水 道</w>
毛泽 东</w>
李 华
改 名</w>
挡 住</w>
拥 挤</w>
打 骂</w>
弹道 导弹</w>
城 关
吊 销</w>
刻 意</w>
偷 渡</w>
便 捷</w>
住 宅
一点 点</w>
t a
O 2
198 0年</w>
12 %</w>
高 血压</w>
领 袖</w>
长期 以来</w>
重 要性</w>
这 天</w>
轰 炸</w>
身 子</w>
草 原</w>
老 总</w>
渔 业</w>
流 域</w>
比 利
拇 指</w>
户 数</w>
总 分</w>
常 规
婴 幼儿</w>
墙 体</w>
国 强</w>
刘 强
冒 险</w>
乱 象</w>
中 南</w>
3 6.
鹿 晗</w>
降 级</w>
陌 陌</w>
金 牌</w>
边 路</w>
行 性</w>
珠 三角</w>
水 稻</w>
校 友</w>
有 化</w>
数 目</w>
推 断</w>
延 边</w>
幸 亏</w>
岛 屿</w>
对 外
失 利</w>
增 友</w>
地 级</w>
响 起</w>
发 性</w>
危险 品</w>
关 押</w>
兰 特</w>
公 然</w>
会 晤</w>
仅 次于</w>
亲 朋
H 7
2015-0 3
连 日
连日 来</w>
规划 局</w>
糟 糕</w>
神 经
民 意</w>
月 子</w>
挫 伤</w>
房地产 税</w>
奢 侈
坚 称</w>
十 六</w>
劳 动力</w>
中 航</w>
东方 网</w>
st ore</w>
at i
3 7.
附 带</w>
诉 状</w>
良 心</w>
脑 子</w>
看 管</w>
监 听</w>
狭 窄</w>
特斯 拉</w>
深 处</w>
法 制
河 里</w>
桥 区</w>
李 宗
服 装
操 场</w>
变 相</w>
参 保</w>
单 刀</w>
副 处级</w>
Y es</w>
N 9</w>
H7 N9</w>
H T
4 2
2014- 11-
1 月份</w>
顺 德</w>
限 于</w>
陈 辉</w>
逐 年</w>
走 红</w>
航 站
聚 众</w>
细 心</w>
砖 头</w>
电影 节</w>
河 流</w>
打 火机</w>
手 腕</w>
德 罗
廉 洁</w>
巴 士</w>
尽 力</w>
小 雪</w>
塔 利
发 售</w>
南都 讯</w>
刘 强</w>
3 8.
项 目
降 水量</w>
过 敏</w>
调 离</w>
范 畴</w>
肺 部</w>
肩 膀</w>
痛 心</w>
炮 弹</w>
江 某</w>
扬 子</w>
宣传 部长</w>
孔 卡</w>
大 众
后 排</w>
去 年底</w>
即 时</w>
卡 尔
全 军</w>
借 鉴</w>
中 文
P C</w>
199 2.
都 区</w>
跨 越</w>
资 讯
沙 滩</w>
智 利</w>
打 斗</w>
心 愿</w>
张家 口</w>
屡 屡</w>
尼 克</w>
少 见</w>
大 半</w>
均 衡</w>
地 板</w>
劝 导</w>
前 台</w>
制 药</w>
初 二</w>
刑 罚</w>
党 纪
克里米 亚</w>
儿 童
俄 方</w>
体育 场</w>
人 文</w>
亚 市</w>
主任 医师</w>
七 旬</w>
we b</w>
m m</w>
追 查</w>
该 行</w>
诊 疗</w>
藏 獒</w>
署 名</w>
纠 缠</w>
立 交
石 某</w>
知 名
环 路</w>
熊 某</w>
混 凝
海 峰</w>
枪 击
救 护</w>
放 过</w>
推 特</w>
拖 延</w>
张 伟
开发 者</w>
墓 碑</w>
基本 面</w>
坊 市</w>
吊 车</w>
印 证</w>
博 文</w>
分 化</w>
G B</w>
7 5%</w>
附 加
链 条</w>
郴 州</w>
迫 使</w>
连 连</w>
超 生</w>
记 录
自 理</w>
立 功</w>
混凝 土</w>
消 耗</w>
晚 点</w>
日 后</w>
新 郎</w>
控 烟</w>
拉 蒂</w>
折 腾</w>
惩 治</w>
巴 塞
小 强</w>
宝 马车</w>
安 康</w>
华 东</w>
内 斯</w>
企 稳</w>
g roup</w>
O2 O</w>
薄 弱</w>
舟 山</w>
王 健林</w>
演 艺</w>
有 所
斯 坦
推 销</w>
安 心</w>
她 家</w>
吸 取</w>
参与 者</w>
党 组织</w>
侄 女</w>
住 址</w>
中 心
两 三
f f
2014- 12-
0. 0
长 治</w>
追 加</w>
连云 港</w>
进 场</w>
运 气</w>
辩 解</w>
讲 究</w>
蒸 发</w>
落 款</w>
缩 水</w>
经济 网</w>
红 牌</w>
笼 子</w>
研究 会</w>
瑞 典</w>
珍 惜</w>
独 立
本 质</w>
最 好</w>
教 材</w>
恶 心</w>
尽 早</w>
天 使</w>
外国 语</w>
冷 冻</w>
便 利
仍 旧</w>
2014- 10
18 00</w>
２０１ ３年</w>
难 过</w>
远 县</w>
趁 着</w>
规 范
苏 格兰</w>
示 范
混 业</w>
水 流</w>
指 使</w>
拉 升</w>
押 解</w>
异 样</w>
异 味</w>
少 林</w>
尊 严</w>
处 方</w>
塔利 班</w>
园 林</w>
务 实</w>
分 院</w>
出 自</w>
关 注
争 论</w>
个 子</w>
个 人
三 级</w>
200 5.
200 4.
辅 导员</w>
蹲 守</w>
资 格
设 法</w>
老 板
秦皇 岛</w>
监管 部门</w>
监 测
游 击
海 水</w>
气 囊</w>
毫 升</w>
枢 纽</w>
极 度</w>
极 力</w>
杰 夫</w>
木 材</w>
新 民</w>
提 案</w>
广告 牌</w>
布 控</w>
就 餐</w>
客运 站</w>
合 伙人</w>
动 不动</w>
冯 某</w>
人 格</w>
钢 管</w>
货 款</w>
规 避</w>
蓝筹 股</w>
绿化 带</w>
精 确</w>
直 传</w>
猛 烈</w>
汇 丰</w>
殡 葬</w>
李 晓
月 底</w>
替 换</w>
新 安</w>
指 导
忠 福</w>
巨 款</w>
小 芳</w>
名 录</w>
升 温</w>
北 美</w>
减 速</w>
入 伍</w>
人 寿</w>
交 待</w>
乾 隆</w>
丝 绸
下 课</w>
o b
T e
9 5
6 4
201 2.
购物 卡</w>
调 研
请 示</w>
误 导</w>
街道 办</w>
艺术 家</w>
航站 楼</w>
第 11</w>
玩忽 职守</w>
牡 丹
此 人</w>
春 华</w>
时 有
接 听</w>
感 激</w>
小 龙</w>
宁波 市</w>
好 看</w>
埃尔 克森</w>
哈 佛</w>
划 伤</w>
再 三</w>
产 能</w>
主 犯</w>
touti ao</w>
4 000万</w>
高新 技术</w>
食物 中毒</w>
飞行 器</w>
菏 泽</w>
苦 苦</w>
职 业
红 网</w>
筹 建</w>
租 用</w>
禽 流感</w>
电视 机</w>
琼 斯</w>
溪 镇</w>
渭 南</w>
海 面</w>
水 沟</w>
无锡 市</w>
教学 楼</w>
放 到</w>
捕 捉</w>
慎 重</w>
干 道</w>
堆 放</w>
吴 泽
口 音</w>
公 顷</w>
以 南</w>
S h
201 3.
青 睐</w>
逼 近</w>
过 渡</w>
薄 膜</w>
肋 骨</w>
界 定</w>
物 种</w>
漳 州市</w>
海 滩</w>
泥 土</w>
汉 姆</w>
永 久</w>
检 修</w>
柳 州市</w>
暴 扣</w>
早 盘</w>
政 权</w>
撞 倒</w>
摇 号</w>
戴 维斯</w>
急诊 室</w>
巴 菲特</w>
州 委</w>
孤 儿</w>
奔 跑</w>
坊 间</w>
哭 泣</w>
司令 部</w>
初 衷</w>
凸 显</w>
农 历</w>
传 达</w>
H K</w>
8 00万</w>
16 万</w>
骨 髓</w>
马 德里</w>
陈 增友</w>
邢 台</w>
蘑 菇</w>
葡萄 牙</w>
营业 部</w>
累 积</w>
等 奖</w>
疲 劳</w>
温 州市</w>
时有 发生</w>
教 科
岳 母</w>
小 巷</w>
家 伙</w>
大 军</w>
叫 声</w>
口 碑</w>
公 分</w>
倒 数</w>
佳 佳</w>
从 重</w>
3 500</w>
1/ 4</w>
风 气</w>
韶 关</w>
邓 肯</w>
这 时候</w>
薛 某</w>
蓝 筹</w>
获 奖</w>
空 门</w>
穆里 尼奥</w>
球 星</w>
海 里</w>
沈 某</w>
步 骤</w>
枪击 案</w>
李 亚
斯 达
招 收</w>
惨 遭</w>
悉 尼</w>
恩 施</w>
密 度</w>
头 目</w>
头 市</w>
大 夫</w>
园 长</w>
听 话</w>
名 将</w>
口 镇</w>
加 斯</w>
制 片
初 三</w>
刘强 东</w>
分 级</w>
保 卫
体 型</w>
义 务
丝绸 之路</w>
5 2
2015-0 4-
13 万</w>
鲜 花</w>
长 发</w>
铁 门</w>
通行 证</w>
行 凶者</w>
蒙 德</w>
美 团</w>
空 降</w>
祖 父</w>
督 办</w>
特 勒</w>
物 证</w>
点 赞</w>
比 亚
正 处级</w>
李 明</w>
数 百万</w>
掩 护</w>
报警 人</w>
所有 权</w>
开 幕</w>
审 稿</w>
学 士</w>
天 文
复 合</w>
后 人</w>
双 号</w>
保 人</w>
佛 罗
何 况</w>
1. 3
麻 醉</w>
高 原</w>
领 涨</w>
陵 区</w>
蚂 蚁</w>
臭 味</w>
生 理</w>
犯 人</w>
溪 市</w>
源 县</w>
格 斯</w>
林 森浩</w>
春 天</w>
承 德</w>
总 工会</w>
张 玉
张 新
小 狗</w>
同 月</w>
参 演</w>
千 克</w>
值 班
便 于</w>
主 办
S p
锤 子</w>
资讯 台</w>
藏 身</w>
绳 索</w>
第 13</w>
积极 性</w>
直 线</w>
盛 大</w>
游 记</w>
格 拉
李 东
术 后</w>
有效 期</w>
施 暴</w>
新 规</w>
放 权</w>
审判 长</w>
季 建业</w>
区 政府</w>
前 晚</w>
军 团</w>
内 向</w>
全 方位</w>
主 城区</w>
1 比0</w>
避 让</w>
识 别
规 格</w>
肩 上</w>
羽 毛
纵 横</w>
纳 税</w>
稳 步</w>
移 民
短 裤</w>
燃 放</w>
法 师</w>
李 文
斧 头</w>
文化 部</w>
救 起</w>
搭 配</w>
投 保</w>
开 户</w>
常规 赛</w>
卸 任</w>
半 数</w>
党 纪</w>
借 用</w>
亚 太
主 播</w>
黑 衣</w>
黄 海</w>
马尔 代
钻 石</w>
行李 箱</w>
社会 保险</w>
游 艇</w>
温 岭</w>
活 塞</w>
弥 漫</w>
小 康</w>
奥 会</w>
垃圾 桶</w>
地 形</w>
哭 声</w>
后 台</w>
取 决
反 锁</w>
勤 部</w>
下 跪</w>
三 分</w>
-0 .
鸣 枪</w>
顽 强</w>
顶 风</w>
那 位</w>
追 溯</w>
运输 局</w>
轮 换</w>
设 计
菜 市场</w>
范 某</w>
睡 着</w>
相 恋</w>
杜 某</w>
斯 达</w>
摄影 师</w>
探 头</w>
报 到</w>
扫 描</w>
房 管局</w>
感 染
影 院</w>
度 假
平顶 山市</w>
岸 线</w>
尾 随</w>
塔 吊</w>
均 值</w>
国 人</w>
取决 于</w>
博 拉</w>
克 萨
一 道</w>
th e</w>
Th e</w>
-0 5</w>
除 去</w>
过 户</w>
过 半</w>
设 计师</w>
自 民党</w>
离 奇</w>
淹 没</w>
洲 区</w>
欧 文</w>
核 对</w>
来 访</w>
机 型</w>
小 微</w>
容 留</w>
头 顶</w>
大 宝</w>
处 罚
四 五
商 议</w>
吴泽 衡</w>
同 等</w>
分 娩</w>
净 值</w>
决 不</w>
养 成</w>
伯 特</w>
不 容易</w>
上 台</w>
黑 莓</w>
骨 灰</w>
额 头</w>
遮 挡</w>
资 阳</w>
贸 市场</w>
葫 芦
自 助</w>
罗 马
第 10</w>
窃 取</w>
真 人
曹 操</w>
无 业</w>
新民 网</w>
搀 扶</w>
慰安 妇</w>
年 均</w>
巴 中</w>
学 金</w>
大中 城市</w>
哲 学</w>
博 客</w>
华 山</w>
劳 工</w>
刊 发</w>
入 围</w>
克 服</w>
修 路</w>
东 南部</w>
丘 市</w>
上 交所</w>
co m</w>
P S
55 分</w>
０ 万</w>
马 竞</w>
饭 后</w>
险 情</w>
邯郸 市</w>
造 谣</w>
迭 戈</w>
轻 度</w>
药 房</w>
胸 口</w>
绝 望</w>
秸 秆</w>
电 气</w>
无线 电</w>
改 编</w>
扭 转</w>
席 尔
小 贩</w>
客 轮</w>
姿 势</w>
大 酒店</w>
听 力</w>
叮 嘱</w>
压 器</w>
刺 伤</w>
出 逃</w>
光 伏</w>
也 好</w>
义 市</w>
临 沂
世 元</w>
不 惜</w>
一 时间</w>
4 8.
3 G</w>
17 万</w>
1. 6
骑 行</w>
预 售</w>
阶 梯</w>
铁道 部</w>
郜 艳敏</w>
萍 乡</w>
节 省</w>
管理 员</w>
笔 试</w>
炸 药</w>
火 热</w>
湘 潭
注 意
注意 力</w>
李 金
旁 听</w>
应 聘</w>
布 莱
小 敏</w>
好 吃</w>
天 地</w>
垄 断
利 润
公证 处</w>
僵 尸</w>
假 装</w>
价 格
下 落
5 0.
2014- 10-
10 0亿</w>
题 目</w>
领 证</w>
韩 联社</w>
错 案</w>
超 速</w>
费 德勒</w>
诚 意</w>
警 报</w>
表 演
胶 带</w>
篮 得手</w>
真 诚</w>
灾 难</w>
潜 水
扣 篮</w>
我 军</w>
单 价</w>
华 侨</w>
倡 议</w>
倒 下</w>
人 节</w>
井 盖</w>
五 粮
二手 车</w>
东 家</w>
不 仅
一 并</w>
B O
0 3
９ 日</w>
误 会</w>
西 路</w>
西 站</w>
襄 阳</w>
装 饰</w>
自治 县</w>
维 生素</w>
空 姐</w>
盒 子</w>
演 唱</w>
毒 性</w>
本 版</w>
本 国</w>
招 待
打 脚
志 明</w>
家 属
奢侈 品</w>
大 大
外 长</w>
城 南</w>
地 方
噩 梦</w>
厦 门市</w>
化 疗</w>
凳 子</w>
关 照</w>
关 口</w>
估 价</w>
主 意</w>
不得 而知</w>
三 亚市</w>
P 2
A R
12 3
- 2</w>
高 利
角 逐</w>
维 和</w>
窗 外</w>
相 遇</w>
波 及</w>
梅 开
望 远
有 意思</w>
放 火</w>
收 据</w>
收 受</w>
抛 尸</w>
忽 略</w>
张 春
开 销</w>
宝 鸡
头 脑</w>
回 想</w>
压 制</w>
卡 塔
千 亿</w>
冲 走</w>
倡 导</w>
以 色
以 北</w>
亲朋 好友</w>
上 旬</w>
a y</w>
A D
3 D</w>
11 万</w>
100. 0</w>
0 7-
高 潮</w>
陈 柏
造 价</w>
过 量</w>
诉讼 法</w>
视 力</w>
行 窃</w>
舞 蹈</w>
老 将</w>
稳 住</w>
瓷 器</w>
杰 克
报 废</w>
德 利</w>
康 市</w>
巨 型</w>
工 头</w>
居 多</w>
尺 度</w>
姜 某</w>
好 不容易</w>
奥斯 卡</w>
失 事</w>
大 局</w>
圣 依</w>
呼吸 道</w>
口 气</w>
侦 察
中 金</w>
中 学生</w>
个 案</w>
不仅 如此</w>
一 片
m g</w>
: 30</w>
99. 3</w>
起 草</w>
赶 快</w>
说 服</w>
能 源
简 化</w>
立交 桥</w>
私 营</w>
破 碎</w>
相 比
王 海
牢 牢</w>
热 衷</w>
游 戏
海 事局</w>
浏 阳河</w>
泰 山</w>
李 嘉
望远 镜</w>
政 纪</w>
攀 升</w>
搬 家</w>
惊 现</w>
徘 徊</w>
张家 界</w>
平 息</w>
小 腿</w>
对 策</w>
大 伯</w>
埃 博拉</w>
各 样</w>
右 路</w>
发 点</w>
十 七</w>
创 立</w>
光 荣</w>
催 促</w>
佛 山市</w>
任 免</w>
以色 列</w>
二 三十</w>
习 俗</w>
下落 不明</w>
3 4.
200 7.
10 000</w>
1. 5
黎 明</w>
颜 世元</w>
雄 鹿</w>
金 沙
逼 迫</w>
筹 码</w>
筷 子</w>
第 20</w>
称 赞</w>
神 华</w>
短 时
理 赔</w>
清 扫</w>
河 路</w>
档 案
机 密</w>
新 年</w>
收 治</w>
接 诊</w>
手 套</w>
户 区</w>
强 力</w>
广 元</w>
年 金</w>
安全 法</w>
司法 部</w>
县 里</w>
十 堰</w>
北 约</w>
关键 词</w>
修 缮</w>
优 良</w>
些 年</w>
99. 5</w>
７ 月</w>
邑 县</w>
编 队</w>
眉 山</w>
省 直</w>
皮 书</w>
河 县</w>
方 向
拳 打脚
店 市</w>
履 新</w>
尾 号</w>
审 慎</w>
奔 波</w>
大 院</w>
多 样
垫 底</w>
博 基尼</w>
前 行</w>
凡 是</w>
兰 博基尼</w>
会 计师</w>
仪 器</w>
交 道</w>
东 盟</w>
一 气
马尔代 夫</w>
错 失</w>
遗 骸</w>
谎 言</w>
该 片</w>
菲 方</w>
继 而</w>
示 威</w>
病 史</w>
烟 台市</w>
消费 品</w>
泉 州市</w>
棚 户区</w>
梅开 二度</w>
杨 晓
朝 着</w>
收 购
押 金</w>
护卫 舰</w>
徐 才
平 房</w>
川 市</w>
实 况</w>
宇 春</w>
备 战</w>
呼 声</w>
价 钱</w>
亦 凡</w>
专 电</w>
上 身</w>
g el
9 000</w>
阿 克
解 开</w>
观 望</w>
苏 州市</w>
美 洲</w>
王 浩
注 册
民政 部</w>
母 公司</w>
楼 区</w>
校 服</w>
李 斯达</w>
数据 库</w>
察 觉</w>
姐 夫</w>
坦 承</w>
同 类</w>
务工 人员</w>
切 割</w>
修 正
以 至于</w>
亲 切</w>
五粮 液</w>
专 科</w>
丑 闻</w>
上 角</w>
一 角</w>
P2 P</w>
ET F</w>
199 3.
黄 圣依</w>
霜 冻</w>
门 户</w>
迪 马
豪 门</w>
置 评</w>
经 侦</w>
系统 性</w>
童 童</w>
神 社</w>
登 机</w>
火 力</w>
油 气</w>
普通 人</w>
拘 捕</w>
承 诺
总 医院</w>
心 思</w>
德 阳</w>
徐才 厚</w>
影 业</w>
崔 永
岳 阳市</w>
小 姑娘</w>
姿 态</w>
失 火</w>
国 美</w>
变 压器</w>
危 及</w>
列 出</w>
保 安
侦查 员</w>
99. 4</w>
10 2</w>
高利 贷</w>
辽宁 队</w>
赛 前</w>
衣 着</w>
良 机</w>
纪念 馆</w>
看 重</w>
演 绎</w>
涌 入</w>
毫 无
普 查</w>
晚 期</w>
新 乡</w>
摩 托</w>
当 代</w>
强 硬</w>
工 行</w>
小 黄</w>
夸 张</w>
增 设</w>
国家 标准</w>
受 阻</w>
发 短信</w>
卢 卡
南 人</w>
十 亿</w>
匹 配</w>
势 必</w>
准 备
会 诊</w>
严 打</w>
不 清</w>
上 岗</w>
197 5年</w>
1. 7</w>
金 库</w>
辩 论</w>
象 征</w>
误 解</w>
补 偿
航 运</w>
舞 弊</w>
耗 时</w>
索 尔</w>
第 16</w>
私 有化</w>
矿 石</w>
看 中</w>
用 房</w>
牵 涉</w>
江 镇</w>
氧化 碳</w>
杨 林</w>
尖 刀</w>
小 将</w>
安全 局</w>
大 幅度</w>
多 么</w>
卧 底</w>
华 中</w>
升 高</w>
区 分</w>
兵 力</w>
充 电
倒 是</w>
代 课</w>
五 常</w>
o w
20 -
18 %</w>
黄 子
韩 媒</w>
雇 佣</w>
释 延
责 编</w>
认 知</w>
行政 区划</w>
第 12</w>
秋 季</w>
玩 家</w>
王 毅</w>
狼 藉</w>
流 泪</w>
洗 衣
沦 为</w>
摩 擦</w>
形 态</w>
当 月</w>
平顶 山</w>
害 性</w>
大 为</w>
国 华</w>
后 市</w>
保障 性</w>
俗 称</w>
付 某</w>
亲 情</w>
举报 信</w>
临 时
专 程</w>
M I
40 亿</w>
1. 8</w>
1. 5万</w>
1 10.
雅 虎</w>
选 址</w>
跑 步</w>
认 错</w>
老 杨</w>
红 会</w>
管 教</w>
第 15</w>
端 午
热 带</w>
汇 总</w>
有 机</w>
政 要</w>
接 任</w>
扣 留</w>
扎 实</w>
惋 惜</w>
平 仓</w>
寺 院</w>
实 战</w>
宇 宙</w>
嘴 唇</w>
商 谈</w>
口 号</w>
动 工</w>
农 产品</w>
军 机</w>
储 户</w>
信 念</w>
伤 残</w>
交 出</w>
中 外</w>
PM I</w>
饮 用</w>
颁 奖</w>
集 镇</w>
轮 船</w>
蒋 某</w>
色 彩</w>
罗 纳
罗 斯
红 肿</w>
童 年</w>
盘 查</w>
毒 案</w>
新 股</w>
政 务</w>
提 成</w>
折 磨</w>
弹 头</w>
异 性</w>
岩 松</w>
小 杰</w>
宝 贵</w>
学 生
售 票
切 除</w>
入 党</w>
主 板</w>
不 知
u s
F C</w>
B BC</w>
８ 月</w>
黄 山</w>
首 选</w>
面 包</w>
集 会</w>
陷 阱</w>
配 送</w>
遵 义</w>
遭 拒</w>
车 管所</w>
赡 养</w>
苍 蝇</w>
考 古
罗 德里
类 别</w>
稀 哲</w>
知名 度</w>
楼 忠福</w>
标 的</w>
极 限</w>
政 策
掌 控</w>
布拉 特</w>
宁 静</w>
四 十</w>
司法 局</w>
剪 刀</w>
出 货量</w>
公开 赛</w>
全 家人</w>
储 蓄</w>
买 入</w>
4 5.
3 1
2 1
13 %</w>
龙 岗</w>
路 程</w>
诸 如</w>
该 镇</w>
蒙 面</w>
茶 叶</w>
节 能</w>
脚 步</w>
考 者</w>
维 尔
续 费</w>
笑 话</w>
确 定性</w>
游 览</w>
港 媒</w>
款 机</w>
暴 徒</w>
春 运</w>
斯 顿</w>
拨 款</w>
扭 曲</w>
所 未
愉 快</w>
惊 醒</w>
悄 然</w>
影 像</w>
张 稀哲</w>
巴塞 罗
尼 尔</w>
守 候</w>
妨 害</w>
头 盔</w>
外 语</w>
合 同
印 刷</w>
利润 率</w>
写 字
元 旦</w>
伤 病</w>
中 长期</w>
东 城</w>
三门 峡</w>
一般 来说</w>
- 10</w>
韩 志
雇 员</w>
陈 永
遥 遥
蒋 介
网 球</w>
缉 捕</w>
维 修
端午 节</w>
矿 工</w>
盘 股</w>
盗 窃
登 山
特 拉
灿 鸿</w>
灭 火
演 变</w>
此 役</w>
未 必</w>
收 敛</w>
打 伞</w>
幻 觉</w>
席尔 瓦</w>
富 翁</w>
复 印
名 气</w>
各 区</w>
博 格
协 查</w>
共同 社</w>
债 主</w>
休 克</w>
事 主</w>
严 查</w>
S D
A l
199 1.
10 4</w>
魏 某</w>
高架 桥</w>
顾 虑</w>
野 外</w>
重 工</w>
赎 金</w>
虹 桥</w>
蒋介 石</w>
董 某</w>
英 寸</w>
稀 土</w>
积 雪</w>
王 建
沉 没</w>
松 江</w>
木 根</w>
木 头</w>
收 银
拳打脚 踢</w>
护 送</w>
引 用</w>
小 镇</w>
婚 外
大众 网</w>
外 表</w>
外 地人</w>
团 聚</w>
噪 音</w>
嘉 兴</w>
周 口市</w>
合 照</w>
各 省</w>
台 区</w>
卫 东</w>
利 斯</w>
凤凰 网</w>
再 现</w>
做 成</w>
事 业部</w>
主治 医生</w>
主 营
15 00万</w>
13 00</w>
11 %</w>
驻马 店</w>
险 胜</w>
阵 地</w>
进 城</w>
辉 煌</w>
讽 刺</w>
订 阅</w>
观 光</w>
茂 名
耀 辉</w>
缝 隙</w>
第 二十
税 费</w>
研究 生
相比 之下</w>
王志 刚</w>
海 底</w>
沃尔 玛</w>
李 登
杀 案</w>
施 压</w>
新闻 办</w>
抵 抗</w>
开 朗</w>
开 头</w>
帐 篷</w>
女 王</w>
夜 班</w>
增长 率</w>
在 押</w>
团 长</w>
同 乡</w>
反 省</w>
反 对
占 比</w>
化 县</w>
加 价</w>
不 严</w>
8 5
黄 冈</w>
骄 傲</w>
透 支</w>
还 债</w>
赞 成</w>
要 素</w>
莆 田
艰 苦</w>
考 研</w>
续 续</w>
管理 者</w>
管 员</w>
筹 划</w>
盗 墓</w>
画 作</w>
理 智</w>
爆 裂</w>
点 儿</w>
汉 口</w>
概 念
有 偿</w>
收 容</w>
拦 网</w>
招 牌</w>
急 于</w>
建 材</w>
天 鹅</w>
坦 白</w>
吻 合</w>
原 地</w>
主 裁判</w>
中 层</w>
an d</w>
S Z</w>
199 9.
1. 6</w>
- 16</w>
３ 月</w>
采 纳</w>
鄂尔多 斯</w>
迄 今
迄今 为止</w>
赔 付</w>
草 莓</w>
胁 迫</w>
红 绿灯</w>
离 子</w>
破 解</w>
矿 产</w>
石家 庄市</w>
沃尔 夫
民 国</w>
搬 走</w>
推 射</w>
挥 霍</w>
抽 检</w>
手 头</w>
战 舰</w>
座 椅</w>
巷 子</w>
小 吴</w>
威 力</w>
外 甥</w>
否 定</w>
勒 索
内 衣</w>
公 社</w>
供 热</w>
伺 机</w>
伪 装</w>
人 间</w>
产 后</w>
个 头</w>
三 五</w>
o v
S N
O T
201 6</w>
2 月份</w>
14 %</w>
0 8月</w>
-0 4</w>
２ ０</w>
２ 年</w>
预 谋</w>
陈 晓
阻 挠</w>
身 为</w>
西 游记</w>
荣 兰
纲 要</w>
米 尔
瞩 目</w>
狠 狠</w>
火 箭
深 受</w>
活 泼</w>
民 兵</w>
木 板</w>
月 球</w>
方 言</w>
捣 毁</w>
挂 职</w>
扬 子
恰 恰</w>
德 拉</w>
当 做</w>
巴塞罗 那</w>
善 于</w>
商 定</w>
哭 闹</w>
南 航</w>
加 息</w>
功 效</w>
几 度</w>
军 训</w>
免 除</w>
今 年初</w>
人 手</w>
交 界
九 龙
上 楼</w>
99. 8</w>
1. 4
韩 国队</w>
阳 人</w>
跻 身</w>
超 载</w>
获 释</w>
苏 亚
肯 尼亚</w>
石 块</w>
督 察</w>
相 邻</w>
现 阶段</w>
环保 厅</w>
煽 动</w>
步 枪</w>
校 内</w>
晚 会</w>
方 丈</w>
弘 扬</w>
引 诱</w>
开 拓</w>
小 雯</w>
宝鸡 市</w>
定 罪</w>
女 尸</w>
城 建</w>
商 贩</w>
养 生</w>
保 养</w>
专 案</w>
不 许</w>
in a</w>
An gel
99. 9</w>
3 5万</w>
0 6-
２ 日</w>
频 发</w>
重 心</w>
退 税</w>
评 定</w>
船 体</w>
纱 布</w>
纯 属</w>
索 贿</w>
比利 时</w>
时间 段</w>
教 导员</w>
教 委</w>
抢 救
户口 簿</w>
恐 怖
引 援</w>
宿 迁
委 内
委内 瑞
国 民
呼 喊</w>
受贿 案</w>
前 年</w>
出 局</w>
净 化</w>
侵 吞</w>
仁 凤</w>
P P
9 5%</w>
1. 7
驱 赶</w>
韩 方</w>
霸 气</w>
阿 基
间 隔</w>
银 河</w>
钱 款</w>
酒 瓶</w>
萝 卜</w>
维 码</w>
泽 马</w>
没 用</w>
水 塘</w>
水 务</w>
每 当</w>
杂 物</w>
朱 可夫</w>
日 均</w>
政 局</w>
招 募</w>
承 揽</w>
彼 时</w>
弱 势</w>
开 幕式</w>
山 寨</w>
山 坡</w>
定 不
定不 移</w>
妻 儿</w>
大 吃
坚 定不移</w>
地 委</w>
在 岗</w>
出 界</w>
具 名</w>
便 衣</w>
二 维码</w>
上 亿</w>
e f
阻 力</w>
金 价</w>
那 段</w>
身 家</w>
踏 实</w>
路 旁</w>
趋 于</w>
谌 龙</w>
该 店</w>
解 禁</w>
西 北部</w>
空 缺</w>
积 分
矿 山</w>
申 办</w>
王 某
液 化
水 区</w>
武 术</w>
李登 辉</w>
李 宝
截 肢</w>
总 领
影 视
形 状</w>
安 葬</w>
候 补
买 单</w>
一 贯</w>
3 50</w>
0 5-
郁 闷</w>
还 给</w>
该 处</w>
表 哥</w>
艾 伦</w>
经济 体</w>
约 谈</w>
红 毯</w>
眼 光</w>
省 道</w>
猎 狐</w>
核 心区</w>
期 盼</w>
月 亮</w>
时 长</w>
数 十万</w>
擅 长</w>
引 领</w>
岐 山</w>
宿 州市</w>
宾 市</w>
增 资</w>
增 援</w>
场 内</w>
地 表</w>
国防 部长</w>
同 性</w>
印度 洋</w>
单 双号</w>
十字 路口</w>
加 紧</w>
分 裂</w>
兴 起</w>
停 赛</w>
候补 委员</w>
主营 业务</w>
iPhone 6</w>
E SP
4 9.
25 亿</w>
14 万</w>
11 3.
00 :
高尔夫 球</w>
驱 逐
集 结</w>
铺 设</w>
通讯 社</w>
输 血</w>
赞 助</w>
豆 腐</w>
谈 论</w>
评 论
裁 决</w>
肝 脏</w>
结 局</w>
纳 斯</w>
私 利</w>
狗 肉</w>
火 锅
江 湖</w>
水 务局</w>
服 从</w>
斯 克</w>
抛 售</w>
手 续费</w>
彭 博</w>
工程 院</w>
小 兰</w>
定 论</w>
城 里</w>
国 库</w>
务 必</w>
利 娟</w>
侯 某</w>
低 洼</w>
低 位</w>
位 列</w>
云 峰</w>
下 身</w>
j i
8 9
198 1年</w>
12 6.
骨 科</w>
领 跑</w>
酿 成</w>
达 国家</w>
诗 人</w>
苏亚 雷斯</w>
腰 部</w>
缺 阵</w>
结 构
瓶 车</w>
灾 情</w>
汽 车站</w>
架 子</w>
本 泽马</w>
新 婚</w>
整 齐</w>
政府 军</w>
换 届</w>
按 钮</w>
挂 车</w>
拍 戏</w>
打 中</w>
姚 笛</w>
地 基</w>
回 族</w>
口 区</w>
受 托</w>
发 达国家</w>
发 球
双 开</w>
即 日</w>
准 时</w>
冰 箱</w>
关 系
关 停</w>
全 校</w>
优 酷</w>
仿 真</w>
主 编</w>
一气 之下</w>
Wi Fi</w>
5 5%</w>
4 6.
1 20万</w>
酷 派</w>
迫 切</w>
路 易
荣兰 祥</w>
臀 部</w>
耗 资</w>
管 网</w>
淮 南</w>
水 价</w>
李嘉 诚</w>
晶 晶</w>
早 点</w>
掉 头</w>
快递 员</w>
尼 日
尼 奥
射 手</w>
封 市</w>
安 门</w>
天 性</w>
大 臣</w>
加 索尔</w>
剧 本</w>
出 游</w>
出 海</w>
净 资产</w>
养殖 场</w>
住建 部</w>
乡 长</w>
义务 教育</w>
下 放</w>
下 山</w>
三 中全会</w>
o p
17 0</w>
风 雨</w>
长 白山</w>
邵 阳</w>
过 路</w>
贵 重</w>
蛋 白</w>
荒 唐</w>
线 杆</w>
空 间
科学 技术</w>
淘 宝
洲 际</w>
植 物
查 验</w>
李 某
有 余
昕 怡</w>
日 程</w>
摊 贩</w>
打 门</w>
往 事</w>
彭 博
开 水</w>
尿 检</w>
小 吃</w>
如 愿</w>
固 定
合 规</w>
勒 夫</w>
前 身</w>
分 队</w>
农 垦</w>
体 质</w>
两 百</w>
三 季度</w>
万 分</w>
5 8.
驱逐 舰</w>
金 色</w>
遇 见</w>
转 院</w>
账 单</w>
谋 划</w>
行 列</w>
蚌 埠
笔 记</w>
研 判</w>
添 加
江 路</w>
村 委</w>
支 队长</w>
接 待
挤 压</w>
拖 鞋</w>
执 意</w>
徐 州市</w>
张 德
帝 国</w>
左 腿</w>
对外 开放</w>
对 照</w>
察 看</w>
家 宝</w>
婚 纱</w>
大 象</w>
商 丘市</w>
古 斯
十 几万</w>
刺 鼻</w>
入 场</w>
入 口处</w>
保健 院</w>
云 龙</w>
丽 江</w>
u t
99. 6</w>
194 5年</w>
10 6</w>
鲜 肉</w>
高 发</w>
预 定</w>
韦 某</w>
陆 地</w>
远 在</w>
腐 烂</w>
脱 逃</w>
缩 减</w>
监 禁</w>
盎 司</w>
疲 软</w>
用 餐</w>
沪 市</w>
沃尔夫 斯堡</w>
民政 厅</w>
李 明
本 着</w>
有 事</w>
把 关</w>
弃 婴</w>
开 放
布 什</w>
小 娟</w>
安 检
宁 区</w>
坟 墓</w>
后 背</w>
后 代</w>
合 成</w>
右 边</w>
南海 网</w>
再 婚</w>
偏 远</w>
乔 治</w>
中 南部</w>
业 厅</w>
不 勒
e y
99. 2</w>
8 6
高等 学校</w>
震 动</w>
费 尔
诈骗 案</w>
草 丛</w>
背 包</w>
综 艺</w>
穿 戴</w>
着 陆</w>
率 领</w>
浓 烟
派 驻</w>
泰 州</w>
河 源</w>
死 角</w>
李 利娟</w>
最高 法</w>
显 示
无 故</w>
抑 郁</w>
恩 里克</w>
张 海
开 花</w>
建 行</w>
应 付</w>
小 心
大 堂</w>
复印 件</w>
围 观者</w>
听 证</w>
卡梅 伦</w>
升 迁</w>
务 农</w>
前 线</w>
仿 佛</w>
交 手</w>
二 线</w>
上 街</w>
20 20</w>
20 2
16 %</w>
1. 3</w>
1. 1</w>
-0 1</w>
鼓 楼</w>
黄 海波</w>
魅 力</w>
问 卷</w>
金融 业</w>
车 改</w>
诫 勉</w>
蚌 埠</w>
莫雷 诺</w>
猴 子</w>
早 间</w>
无 名
敲 定</w>
拓 宽</w>
惠 普</w>
干 涉</w>
射 程</w>
富 力
安 庆</w>
威 廉</w>
委内瑞 拉</w>
天 河</w>
大 关</w>
外 商</w>
发 射
反 响</w>
博 士
内 江</w>
主办 方</w>
中 将</w>
ab aby</w>
7 0
25 -</w>
- 3</w>
齐 市</w>
驻 华</w>
马 克
饮 水</w>
饭 局</w>
靖 国
金 龙</w>
醒 目</w>
酝 酿</w>
远 市</w>
软 组织</w>
诽 谤</w>
该 厂</w>
试 飞</w>
花 生</w>
网 名</w>
维 尔</w>
继 伟</w>
结 伴</w>
王 正
狱 警</w>
深 厚</w>
本 科
朝 鲜
撰 文</w>
指 认</w>
战 线</w>
感 恩</w>
情 人节</w>
山 林</w>
小 红</w>
小 卖
家 庭
奠 定</w>
天 文</w>
地 税局</w>
博物 院</w>
前 所未
减 持</w>
修正 案</w>
侵 华</w>
佣 金</w>
伯 克
中 海油</w>
不堪 设想</w>
三 角
2014 .
1- 3</w>
高 手</w>
首 脑</w>
饲 料</w>
阿基 诺</w>
鉴 定
轻 轻</w>
踢 球</w>
话 费</w>
编 剧</w>
男 士</w>
用 电量</w>
瓦 伦
游 泳池</w>
核 算</w>
村 口</w>
未 曾</w>
时 不时</w>
提 振</w>
抗 诉</w>
得 主</w>
安 阳</w>
国 主义</w>
围 住</w>
哄 抢</w>
吸 毒
发 泄</w>
创 伤</w>
刀 伤</w>
体 温</w>
不 平</w>
下 水道</w>
下 次</w>
99. 7</w>
0. 2</w>
靖国 神社</w>
选 项</w>
迁 移</w>
负 债
讨 薪</w>
触 及</w>
薪 水</w>
蓝 军</w>
营 养
脆 弱</w>
老板 娘</w>
美 洲杯</w>
美 容
稽 查</w>
稀 释</w>
真人 秀</w>
田 县</w>
灭火 器</w>
源 市</w>
景德 镇</w>
普 拉斯</w>
春 季</w>
废 水</w>
尔 森</w>
小 小
实 话</w>
实 物</w>
媛 媛</w>
奋 战</w>
天 才</w>
坠 亡</w>
国 旗</w>
国 债</w>
唐 山市</w>
吴 淦</w>
升 值</w>
住建 局</w>
传 染</w>
云 县</w>
ESP N</w>
99. 1</w>
3 9.
零 点</w>
阶 层</w>
赤 峰
诱 骗</w>
话 说</w>
识别 区</w>
裸 露</w>
聚 餐</w>
网 易</w>
短 片</w>
白云 区</w>
洗手 间</w>
永 州</w>
欠 债</w>
标 明</w>
文 学
敲诈 勒索
捅 伤</w>
扬 州市</w>
恩 斯</w>
征 战</w>
巴 掌</w>
工 贸</w>
尤 为</w>
小 花</w>
存 入</w>
复 兴</w>
吉 尔</w>
各 家</w>
可 乐</w>
变 革</w>
加 德
刘 涛</w>
军 长</w>
六 七
公 报</w>
中青 在线</w>
中 组
下 令</w>
i e</w>
e m
17 :
10 8</w>
-0 3</w>
马 桶</w>
随 行</w>
附 加</w>
阿 扎
赤 裸</w>
请 问</w>
触 电</w>
续 性</w>
窃 贼</w>
海 警</w>
气 质</w>
民 宅</w>
朱 婷</w>
昂 贵</w>
政 事儿</w>
插 手</w>
拖 累</w>
张 大
张 国
年 龄
婚 前</w>
奇 虎</w>
失 独</w>
大 海</w>
大 气
大 屠杀</w>
大 一</w>
增 加
原 定</w>
北 上</w>
包 养</w>
农 家</w>
值班 室</w>
倒 闭</w>
佛 像</w>
传染 病</w>
休 养</w>
主 攻</w>
不 舍</w>
B S</w>
16 -
11 1</w>
高 盛</w>
风 水</w>
预 料</w>
金 道
里 /
造 船厂</w>
适 宜</w>
跟 鞋</w>
谋 利</w>
记 住</w>
补 射</w>
艾 春</w>
膨 胀</w>
经营 性</w>
纵 容</w>
糊 涂</w>
福 布斯</w>
社 保
烟 头</w>
港 交所</w>
深 感</w>
服 饰</w>
方向 盘</w>
揭 发</w>
护 工</w>
怀 里</w>
引 资</w>
应 届</w>
常 识</w>
展 望</w>
小 俊</w>
实 名
塞 尔</w>
四 肢</w>
包 厢</w>
劲 松</w>
农 贸市场</w>
内 裤</w>
儿 媳妇</w>
假 如</w>
候 见
京 城</w>
交通 厅</w>
交界 处</w>
亚 特
五 星级</w>
云 露</w>
二 环</w>
事 发地</w>
中组 部</w>
o f</w>
G PS</w>
9 3.
5. 5</w>
196 2年</w>
1/ 3</w>
马 斯</w>
重 灾区</w>
进 食</w>
胡 同</w>
考 量</w>
生 源</w>
瑞 安</w>
王 春成</w>
濒 危</w>
温 哥
派 对</w>
毛 病</w>
昆 山</w>
方 便
手 下</w>
惨 烈</w>
微 弱</w>
张 铁
引 渡</w>
安东 尼</w>
女 工</w>
多 多</w>
增 持</w>
哈 哈</w>
南 通市</w>
动 画
农 合</w>
入 职</w>
做 人</w>
不可 思
上 行</w>
b a
7 5
11 2.
默 德</w>
黑 名单</w>
阿拉 伯</w>
金道 铭</w>
退 市</w>
退 休
英 里</w>
聊 城</w>
简 介</w>
穆 勒</w>
清 远</w>
涉 足</w>
死 死</w>
拉 特</w>
尾 部</w>
嫖 宿</w>
如 其
大 户</w>
周 转</w>
冲 撞</w>
全 资</w>
全 球
倒 卖</w>
中华 民族</w>
专 辑</w>
不可思 议</w>
t er
X X</w>
J o
I P</w>
24 -</w>
00 分</w>
黑 暗</w>
麻 麻</w>
马 卡
资源 局</w>
该 省</w>
诚 基</w>
议 庭</w>
苗 族</w>
花 梨
胶 囊</w>
职 称</w>
缴 存</w>
组 成
繁 华</w>
第 14</w>
盆 地</w>
潘 某</w>
渭 南市</w>
清 洁
梁 耀辉</w>
案 人</w>
日 记</w>
操作 系统</w>
捐 助</w>
技 巧</w>
悔 罪</w>
平 民</w>
常 态
尾 盘</w>
尺 寸</w>
家 禽</w>
实名 制</w>
嫖 客</w>
奇 艺</w>
后 座</w>
后 备
同 班</w>
吃 喝</w>
可 观</w>
原 件</w>
华 谊</w>
午 餐</w>
刘 家
克 斯坦</w>
停 水</w>
借 机</w>
体 能</w>
书 记
业 态</w>
万 万</w>
4 3.
17 %</w>
高 跟鞋</w>
马 丁</w>
领 队</w>
长 辈</w>
长 安
跌 落</w>
衡 量</w>
自 查</w>
组成 部分</w>
祝 贺</w>
直 奔</w>
用 心</w>
火 场</w>
海 洋
洛 斯</w>
泪 水</w>
泉 市</w>
段 性</w>
新 疆
指挥 员</w>
担 架</w>
开 奖</w>
工 资
屡 次</w>
就 地</w>
实 情</w>
大 举</w>
周 小
可 行</w>
北 戴
前所未 有</w>
写字 楼</w>
位 数</w>
上 百万</w>
a d
W e
24 时</w>
198 6.
11 2</w>
麻 将
震 感</w>
镇 宇</w>
过 重</w>
载 客</w>
贸 易
葬 礼</w>
草 坪</w>
花梨 木</w>
腺 癌</w>
程 某</w>
烟 雾</w>
湖 市</w>
洗 浴</w>
汉 能</w>
气 球</w>
武 装
株 洲
校 门</w>
替 考者</w>
斯特 林</w>
斯 市</w>
改革 委</w>
持 刀</w>
心 有余
师 大</w>
妇 科</w>
回 过</w>
呼 叫</w>
号 召</w>
划 拨</w>
凯 文</w>
假 设</w>
保护 法</w>
介 绍
不 确定性</w>
上 下班</w>
三 菱</w>
Te ch
10 3</w>
0 1-
鼓 楼区</w>
黄 石
顺 序</w>
长治 市</w>
锦 旗</w>
透 明
迪马 利亚</w>
自 费</w>
自 救</w>
短时 强</w>
眠 药</w>
狮 子</w>
炫 耀</w>
检 疫
标 赛</w>
智 商</w>
旭 东</w>
抽 搐</w>
康 师傅</w>
履 历</w>
少 数
奥 迪
夫 斯基</w>
大 坝</w>
备 忘
地方 性</w>
国 税</w>
合 法
剧 毒</w>
分 居</w>
凉 山</w>
全 队</w>
候见 志</w>
伯 格</w>
举报 者</w>
丢 弃</w>
E X
4 5%</w>
201 9年</w>
200 7</w>
１ １月</w>
高 架</w>
阶 段性</w>
遍 布</w>
追 击</w>
轻 型</w>
越 过</w>
赤峰 市</w>
赔 礼
赔礼 道歉</w>
资 料
莱 昂
终 点</w>
繁 忙</w>
简 政
笔 者</w>
相 连</w>
畸 形</w>
瓦伦 西亚</w>
爱 奇艺</w>
添加 剂</w>
浦 县</w>
洪 某</w>
标准 化</w>
柏 芝</w>
早 饭</w>
救 火</w>
收 紧</w>
挣 脱</w>
折 扣</w>
得 罪</w>
当 今</w>
市 县</w>
小 琴</w>
小 品</w>
实 实</w>
宜 昌市</w>
安 眠药</w>
姚 某</w>
伊 布</w>
乌鲁木 齐市</w>
乌 龙</w>
东北 虎</w>
专 线</w>
一 流</w>
S C
NA SA</w>
8 5%</w>
0. 1</w>
除 外</w>
阿 婆</w>
锦 标赛</w>
超 车</w>
谩 骂</w>
解 答</w>
视 点</w>
西 宁市</w>
罗 拉</w>
简政 放权</w>
王 岐山</w>
王 丽</w>
滞 后</w>
江苏 网</w>
武 力</w>
步 兵</w>
杰克 逊</w>
景 气</w>
放 出</w>
招商 引资</w>
招 生
意 见
性 感</w>
当 劳</w>
张 立
张 明
常 用</w>
岁 月</w>
大 树</w>
大 同
备忘 录</w>
培 国</w>
图 书</w>
吉 祥</w>
博 主</w>
劝 解</w>
分 支</w>
出 生
五 千</w>
了 之</w>
一 心</w>
198 9.
-0 8</w>
雇 主</w>
雅 安</w>
钦 州市</w>
金 正恩</w>
金 店</w>
走 近</w>
赞 助
诱 发</w>
记录 仪</w>
警 察
行贿 罪</w>
老 人家</w>
纳 德</w>
科 斯塔</w>
看 护</w>
疗 法</w>
疏 忽</w>
治 愈</w>
水利 局</w>
段 某</w>
桌 上</w>
未 知</w>
斯 莱斯</w>
数 亿</w>
感 器</w>
德 县</w>
张 勇</w>
巴 拉
如 期</w>
天 府</w>
处罚 法</w>
声 誉</w>
围 捕</w>
喷 泉</w>
劳 斯莱斯</w>
出 让
减 排</w>
光 灯</w>
值 钱</w>
似 的</w>
仪 仗
人 肉</w>
人 情</w>
S O
F A</w>
2015-0 3-
198 4.
197 9年</w>
0 点</w>
齐 普拉斯</w>
首 页</w>
遮 盖</w>
造 血</w>
说 明书</w>
莫 名</w>
纯 粹</w>
立 交</w>
称 作</w>
租 客</w>
福 清</w>
破 旧</w>
矿 权</w>
派 员</w>
梯 队</w>
标 志
杜 兰特</w>
有 益</w>
暂 缓</w>
散 户</w>
攀 枝
拖 行</w>
房 主</w>
戏 称</w>
开 区</w>
常态 化</w>
尾 声</w>
尼日 利亚</w>
家 村</w>
家 务</w>
天 台</w>
大 意</w>
哈 市</w>
合 议庭</w>
发 帖
历 程</w>
加德 满
制 成</w>
其 父</w>
公 租房</w>
何 以</w>
业 余</w>
专 卖
不 光</w>
上 风</w>
an ce</w>
A p
6 2
2014-0 8-
11 4.
-0 9</w>
龙 海</w>
饱 受</w>
雨 天</w>
阻 挡</w>
鉴 燎</w>
金 城</w>
邓 小平</w>
逃 往</w>
语 气</w>
试 试</w>
船 长</w>
自 习</w>
耒 阳</w>
缜 密</w>
统 治</w>
站 牌</w>
熊 艾春</w>
炎 热</w>
清 市</w>
活 儿</w>
法 网</w>
水 井</w>
榜 样</w>
李 俊
曹 鉴燎</w>
春 莹</w>
摄 中</w>
捕 获</w>
性 病</w>
山 顶</w>
小 艳</w>
委员 长</w>
好 感</w>
大 年
大 兴
塘 镇</w>
噩 耗</w>
卡 片</w>
业 务
Q FI
18 6
1. 4</w>
陈 伟</w>
酒 业</w>
通 胀</w>
身 心</w>
议 案</w>
致 富</w>
老 刘</w>
经营 权</w>
疑 虑</w>
照 明</w>
热 身
烦 恼</w>
火 山</w>
滋 生</w>
杨 子</w>
杀 伤
晓 得</w>
文 献</w>
撤 回</w>
手 感</w>
城 市
哈 里斯</w>
合 福</w>
制 性</w>
何 种</w>
低 端</w>
价 位</w>
代 孕</w>
主 线</w>
上 诉人</w>
三 板</w>
七 夕</w>
一片 狼藉</w>
一 动不动</w>
QFI I</w>
A M
颜 值</w>
阅 兵
该 所</w>
虚 弱</w>
薪 资</w>
茂名 市</w>
老 张</w>
第 18</w>
短 袖</w>
益 阳</w>
生产 总值</w>
理 事</w>
王 本
然 大
烈士 陵园</w>
温哥 华</w>
沃 尔</w>
求 职</w>
水 电站</w>
次 年</w>
检查 站</w>
树 枝</w>
果 敢</w>
提 供
战斗 力</w>
总 算</w>
干 线</w>
师 团</w>
学 霸</w>
头 疼</w>
大 理</w>
外 孙</w>
增加 值</w>
向 东</w>
双 规</w>
印 刷
半 身</w>
刷 单</w>
刘 金
刘 建
书 法</w>
不 妥</w>
一 步步</w>
e p
5 5.
4 7.
28 -</w>
1. 5亿</w>
雯 雯</w>
陶 瓷</w>
错 币</w>
通 风</w>
识 破</w>
自 此</w>
红 利</w>
突 如其
突如其 来</w>
稳 妥</w>
盈 率</w>
疤 痕</w>
王 家
热身 赛</w>
民 航局</w>
每 位</w>
武 磊</w>
景 象</w>
抽 出</w>
恩 来</w>
心有余 悸</w>
径 直</w>
引 述</w>
庆 生</w>
巧 合</w>
州 长</w>
山 庄</w>
咨询 师</w>
周 报</w>
周 云露</w>
关 村</w>
供应 链</w>
传 感器</w>
不 上</w>
上 千万</w>
· 艾
7 9
14 00</w>
10 7</w>
长 传</w>
返 乡</w>
过 激</w>
轰 动</w>
费 率</w>
苏 宁</w>
自 动
胜 负</w>
移民 局</w>
电 筒</w>
生 计</w>
火 炮</w>
滚 动</w>
淤 青</w>
海 鲜</w>
海 珠
海 区</w>
母 娘</w>
武 侯
晚 宴</w>
改 建</w>
扣 球</w>
成交 额</w>
彭博 社</w>
年 末</w>
年 幼</w>
居住 地</w>
奔 赴</w>
处 女
增 进</w>
坐 下</w>
国民 经济</w>
加 工厂</w>
冤 案</w>
兰 大</w>
做 客</w>
体 局</w>
主任 委员</w>
中 铁</w>
严 重
下 海</w>
下 体</w>
上 下
M i
H u
2- 3</w>
限 价</w>
酌 情</w>
车 体</w>
购 买
质 押</w>
裂 痕</w>
蟑 螂</w>
脂 肪</w>
肇 庆</w>
耒 阳市</w>
糯 米</w>
用 作</w>
牵 扯</w>
温 泉</w>
清 朝</w>
波 兰</w>
档 次</w>
文 某</w>
文 斯</w>
敬 明</w>
操 办</w>
感 人群</w>
彩 排</w>
张 斌</w>
外 侧</w>
士 队</w>
地 名</w>
商 行</w>
割 腕</w>
写 信</w>
公开 信</w>
八 十</w>
兆 业</w>
保险 费</w>
保健 品</w>
作 协</w>
m in
4 0.
1 万亿</w>
. .</w>
隐 形</w>
邢 台市</w>
资格 证</w>
贯 穿</w>
计生 办</w>
表 姐</w>
联 名</w>
老 挝</w>
美 联社</w>
站 立</w>
电 瓶车</w>
澳 元</w>
汉 中市</w>
柏 林</w>
无论 如何</w>
抽 取</w>
承诺 书</w>
承 载</w>
户 主</w>
开 辟</w>
年 收入</w>
工业 区</w>
山 州</w>
少数 民族</w>
小 汽车</w>
富 豪
堵 车</w>
坐 牢</w>
圆 满</w>
团 购</w>
变 身</w>
加德满 都</w>
力 克</w>
农 业部</w>
免 疫</w>
假 货</w>
交 纳</w>
不 菲</w>
上 浮</w>
ch a
an d
99. 0</w>
26 -</w>
2014-0 8
2 2%</w>
195 5年</w>
音 速</w>
闻 名</w>
那 儿</w>
转 交</w>
足 迹</w>
资源 部</w>
负 荷</w>
老 干部</w>
翼 翼</w>
翻 沉</w>
罗纳 尔多</w>
缓 缓</w>
粮 油</w>
筛 选</w>
空间 站</w>
特 里
牛 仔
深 交所</w>
杨 斌</w>
春 秋</w>
旧 金山</w>
政 耀</w>
摇 头</w>
提 倡</w>
打 交道</w>
戛 纳</w>
惨 案</w>
必 将</w>
德 扬</w>
张 鹏</w>
廉 价</w>
常 宁</w>
尼 古
尔 兰</w>
小 燕</w>
婚外 情</w>
城 关</w>
同 一天</w>
北京 队</w>
力 以
力以 赴</w>
全 力以赴</w>
偷 盗</w>
余 姚</w>
传 输</w>
任 教</w>
乌 龟</w>
中 甲</w>
东 湖</w>
不 足以</w>
一 无所
en t</w>
a x
I F
Angel ababy</w>
11 月份</w>
1 30万</w>
黑 人</w>
麦 当劳</w>
鹏 飞</w>
餐 桌</w>
食药 监局</w>
随 迁</w>
钢 材</w>
遥 控</w>
辣 椒</w>
起 降</w>
赚 取</w>
费尔 南
调研 员</w>
自 责</w>
腹 痛</w>
直 达</w>
电 费</w>
王 全
点 滴</w>
潜 规则</w>
湖 泊</w>
液化 气</w>
海 边</w>
海 淀</w>
松 动</w>
村 里人</w>
李 宇春</w>
教 堂</w>
打 断</w>
惠 东</w>
店 家</w>
年龄 段</w>
平 安
工业 园</w>
小 伟</w>
安全 感</w>
奥 朗
回 传</w>
四 中全会</w>
吕 娟</w>
后 遗
卡 拉
关 市</w>
克萨 斯</w>
侦察 机</w>
体育 局</w>
伴 侣</w>
人 事
中 科院</w>
不 定</w>
下 一代</w>
丈 母娘</w>
in e</w>
3 3%</w>
08 时</w>
高 压
高 中生</w>
随 处
防 城
进 货</w>
过 道</w>
质 监局</w>
自 燃</w>
盘 价</w>
电 线杆</w>
热 刺</w>
火 锅</w>
柬 埔
服务 费</w>
撰 写</w>
搏 斗</w>
接 管</w>
拍 打</w>
抽 血</w>
报 请</w>
德 尔</w>
弧 线
张 保</w>
广 安</w>
山 洞</w>
守 护</w>
季 奇</w>
契 机</w>
天 安门</w>
大 三</w>
地 下水</w>
国务 卿</w>
右 脚</w>
危 重</w>
劳动 党</w>
加 拉
利 县</w>
凶 器</w>
亚 诺</w>
事 迹</w>
不勒 斯</w>
en g
7 00万</w>
2. 6
11 4</w>
龄 化</w>
韩志 然</w>
限 定</w>
贝 娜</w>
计 时</w>
行 医</w>
菲 尔
荆 州市</w>
范 佩
范佩 西</w>
第 21</w>
石 刻</w>
相 符</w>
番 禺</w>
电话 会议</w>
猪 场</w>
燃 煤</w>
熟 知</w>
火锅 店</w>
湖 州</w>
海 都</w>
江 门市</w>
江 淮</w>
正 常人</w>
桥 面</w>
核 武器</w>
本 级</w>
新 秀</w>
捕 鱼</w>
投 票
打 包</w>
总 面积</w>
微 型</w>
弹 性</w>
屠 宰</w>
小心 翼翼</w>
小卖 部</w>
小 玉</w>
孝 顺</w>
娄 底</w>
失 守</w>
大 卫</w>
地 毯</w>
图 文</w>
喉 咙</w>
后遗 症</w>
变 卖</w>
南 湖</w>
单 打</w>
协 和</w>
加 尔</w>
农 行</w>
假 药</w>
交 接</w>
书 写</w>
中 卫</w>
两 点</w>
与 会</w>
下 挫</w>
m p
c ai
S M</w>
2015-0 2-
2014-0 9-
1. 9
１２ 月</w>
驾驶 座</w>
驴 友</w>
食药 监</w>
预 备
连 环</w>
违 者</w>
辨 别</w>
罚 球</w>
繁 殖</w>
系 数</w>
笼 罩</w>
禅 城</w>
真 伪</w>
生 还</w>
珠 江</w>
特 里</w>
燕 郊</w>
热 水</w>
淮 安</w>
浮 动</w>
洛 因</w>
沟 村</w>
江 边</w>
此 行</w>
朱 明
普通 股</w>
新 县</w>
挥 舞</w>
挂 号</w>
持 仓</w>
拳 头</w>
总 工程师</w>
弧线 球</w>
康 康</w>
座 谈</w>
庇 护</w>
带 入</w>
宣 读</w>
头 村</w>
圆 形</w>
国 安
困 惑</w>
名 片</w>
吉 尔
台 币</w>
华 裔</w>
北 市</w>
克 鲁
作 假</w>
众 议院</w>
之 以
丽 君</w>
中间 价</w>
一 氧化碳</w>
一 卡通</w>
7 4
30 00
3. 5</w>
23 %</w>
2 40</w>
默 认</w>
黄 政耀</w>
高 玉
风 景区</w>
零 下</w>
雨 绮</w>
里/ 小时</w>
酱 油</w>
酒 楼</w>
郑 爽</w>
迪 拜</w>
车 流</w>
路 费</w>
财 力</w>
装 甲</w>
虎 门</w>
经济 区</w>
相 隔</w>
电 缆</w>
申 领</w>
瓶 子</w>
爆炸 案</w>
治 疗费</w>
每 户</w>
柬埔 寨</w>
李 强</w>
提 包</w>
招 办</w>
拉 萨</w>
打 砸</w>
战 队</w>
帅 气</w>
客 房</w>
安 宁</w>
存 者</w>
奥朗 德</w>
嚣 张</w>
另 行</w>
反 驳</w>
南 北车</w>
保障 房</w>
保 洁</w>
代表 性</w>
代 市长</w>
乡 县</w>
乌 拉
24 %</w>
. i
龙 凤
高 薪</w>
高 昂</w>
饭 碗</w>
阿 布
阐 述</w>
里 皮</w>
追 捧</w>
远 角</w>
近 乎</w>
过 夜</w>
车 顶</w>
贵 族</w>
蒋 尊
莫 里斯</w>
艺 龙</w>
自 豪</w>
羊 驼</w>
罗 湖</w>
管理 所</w>
种 各样</w>
瞄 准</w>
生 成</w>
牛仔 裤</w>
淄 博</w>
浸 泡</w>
浓烟 滚滚</w>
汕 头</w>
李 某某</w>
李 建
智 障</w>
春 蕾</w>
日 渐</w>
无 聊</w>
无 比</w>
无 权</w>
报 导</w>
投 降</w>
打 拼</w>
幻 想</w>
差 价</w>
寻 常</w>
头 痛</w>
天津 队</w>
天 涯</w>
多 宝</w>
四 季</w>
周 恩来</w>
各 种各样</w>
台 上</w>
参 选</w>
卫 平</w>
包 庇</w>
出让 金</w>
出 线</w>
军事 基地</w>
内 在</w>
修 理</w>
仪仗 队</w>
事 物</w>
一 言
B M</w>
33 -</w>
2 7%</w>
17 00</w>
1 30
非 正常</w>
降 费</w>
阿尔 滨</w>
长 效</w>
邻 国</w>
羊 年</w>
粪 池</w>
第 31</w>
短 缺</w>
界 限</w>
渗 透</w>
海 洛因</w>
服 药</w>
星 座</w>
方 面
揭 露</w>
排 污
拯 救</w>
护 士
户 籍
慰 问
性 命</w>
得 益</w>
张 永
引 燃</w>
延 安市</w>
幌 子</w>
封 面</w>
孙 伟
姓 氏</w>
天 花
处 警</w>
土 地
喜 剧</w>
发 店</w>
初 中生</w>
冬 根</w>
六 盘
克里 斯</w>
促 成</w>
住宅 楼</w>
人 道
举 例</w>
三 类</w>
m an</w>
i s</w>
100. 1</w>
0 3-
陈 家
间 断</w>
长 子</w>
金 条</w>
邱 某</w>
透 析</w>
送 货</w>
足 协
调 皮</w>
航空 兵</w>
立 项</w>
空 域</w>
称 之
称之 为</w>
秀 区</w>
神 志</w>
的 哥</w>
田 仁
漯 河</w>
洛 伊
注 定</w>
水 者</w>
水 分</w>
民 族
校 外</w>
新 款</w>
擦 伤</w>
担 责</w>
总 收入</w>
市 盈率</w>
尔 尼
安置 房</w>
字 号</w>
嫂 子</w>
多 边</w>
国 奥
吴 昕怡</w>
名 列</w>
击 打</w>
偶 遇</w>
仓 储</w>
人道 主义</w>
人 贩子</w>
亲 手</w>
二 中</w>
中山 大学</w>
中央 政府</w>
an g</w>
197 6年</w>
1 20
高 晓
馒 头</w>
风 光</w>
青 年
陈 小霞</w>
郭 莉</w>
起 伏</w>
败 露</w>
调 入</w>
裙 子</w>
艺术 品</w>
自然 人</w>
罗德里 格斯</w>
组 装</w>
管理 费</w>
第十 三</w>
稳 定性</w>
水 瓶</w>
槿 惠</w>
核 定</w>
有 用</w>
斑 马
攀 爬</w>
挨 打</w>
扬子 晚报</w>
意 想不到</w>
悼 念</w>
恐怖 主义</w>
总 参谋长</w>
快 要</w>
张铁 林</w>
弗 森</w>
康 熙</w>
市 容</w>
崔永 元</w>
安全 带</w>
女 装</w>
女 单</w>
失 明</w>
壮 大</w>
台 县</w>
南 州</w>
华 泰</w>
充 电器</w>
住 院
中 段</w>
东 升</w>
s on</w>
L E
G al
99. 99</w>
198 7.
12 亿</w>
11 亿</w>
0 28
霸 道</w>
陈 建
附 有</w>
附 上</w>
郴 州市</w>
遗 物</w>
连 同</w>
草 地</w>
自 贡</w>
考 入</w>
矫 正</w>
盐 城市</w>
电梯 门</w>
王 玉
狱 中</w>
满 载</w>
流浪 汉</w>
毕 节</w>
比 特
死 去</w>
死 亡
此 地</w>
校 生</w>
惨 重</w>
恋 人</w>
心 灵</w>
幸 福
幸 存者</w>
尾 巴</w>
小小 的</w>
容 纳</w>
奖 学金</w>
堆 积</w>
地 步</w>
单 据</w>
北戴 河</w>
化 工厂</w>
动 荡</w>
冷 漠</w>
冒 用</w>
公安 处</w>
元/ 吨</w>
僧 人</w>
伯克 希尔</w>
丽 萍</w>
个人 所得税</w>
三 连
三 甲</w>
a k
4 4.
25 分</w>
５ 年</w>
零 件</w>
雕 塑</w>
随处 可见</w>
阅 读
门 诊
通 州区</w>
该 区</w>
西 双
衢 州</w>
萌 生</w>
航 道</w>
紫 棋</w>
相 貌</w>
病 假条</w>
理事 长</w>
王 杰</w>
牲 畜</w>
爱 国</w>
爱 上</w>
淀 区</w>
没 关系</w>
暴 利</w>
挟 持</w>
慌 乱</w>
悉 数</w>
心 目</w>
引 人
常 德</w>
尿 液</w>
宏 运</w>
字 画</w>
奥 运</w>
墨 镜</w>
埃 里
反 倒</w>
参 会</w>
击 伤</w>
出 访</w>
内 涵</w>
党纪 政纪</w>
会 战</w>
二 者</w>
中小 板</w>
中 止</w>
中 北部</w>
不 俗</w>
不 会</w>
q u
N e
HT C</w>
E x
5 ·
2 /
高 烧</w>
集 合</w>
陈 赫</w>
阵 阵</w>
阳 湖</w>
防 卫
银 元</w>
进 出
西双 版
血 型</w>
蒋尊 玉</w>
继 母</w>
研 讨
眼 皮</w>
电 击</w>
犹 如</w>
爆炸 物</w>
灌 溉</w>
残 酷</w>
款 物</w>
楚 网</w>
某 华</w>
杨 旭</w>
机 电</w>
本 期</w>
明 代</w>
斥 资</w>
文 联</w>
指 甲</w>
报 送</w>
投 向</w>
投 中</w>
所有 制</w>
德 约
废 物</w>
岩 石</w>
小 罗</w>
家 用</w>
可 行性</w>
厄 尔尼
低 下</w>
乌 木</w>
与 其</w>
一 月</w>
k m</w>
26 万</w>
198 5.
９ 月</w>
５ ０
顺 势</w>
遗 失</w>
解 析</w>
衣 间</w>
花 样</w>
肉 类</w>
纠 集</w>
立 足</w>
省 里</w>
监 考</w>
皮 影</w>
清 退</w>
毫 不
步行 街</w>
欲 望</w>
桥 下</w>
杨 子
时 年</w>
日 耳
敲诈勒索 罪</w>
扫 射</w>
打 折</w>
恒 指</w>
志 华</w>
影 子</w>
张 杰</w>
库 克</w>
干 旱</w>
常 州市</w>
布 满</w>
工商 联</w>
宿迁 市</w>
宗 旨</w>
失 窃</w>
复 议</w>
域 名</w>
图 纸</w>
发球 局</w>
动 摇</w>
制片 人</w>
利 民</w>
出 没</w>
减 产</w>
再 见</w>
公交 站</w>
公 里/小时</w>
候 车
众 筹</w>
交 集</w>
交 替</w>
为 难</w>
与 否</w>
不得 已</w>
H O
5 1%</w>
3 2%</w>
2 6%</w>
-0 7</w>
-0 2</w>
高 低</w>
马 鞍山</w>
饰 品</w>
餐 店</w>
面 孔</w>
长 久</w>
遥遥 领先</w>
遥 远</w>
迎 面</w>
转 自</w>
路 桥</w>
赛 点</w>
诗 歌</w>
讲 解</w>
解 剖</w>
蝎 子</w>
红 线</w>
精 英</w>
石 碑</w>
短 线</w>
眼 角</w>
玉 海</w>
炮 轰</w>
流 转</w>
沙 县</w>
水 准</w>
概念 股</w>
核 电站</w>
杨 德
朝 方</w>
新 片</w>
斯 勒</w>
文 文</w>
政 界</w>
担 负</w>
扬 扬</w>
打 倒</w>
战 略
惯 性</w>
张 建
开 关</w>
庄 镇</w>
并 轨</w>
并 列</w>
岗 亭</w>
小 婷</w>
小 军</w>
定 居</w>
孩 儿</w>
子 萱</w>
威 斯
奖 杯</w>
夺 取</w>
厄尔尼 诺</w>
十二 五</w>
制 订</w>
养 活</w>
借 条</w>
企 事业</w>
产 地</w>
丘 吉尔</w>
a s</w>
8 00
30 -
3. 8
1. 2万</w>
龙 华</w>
飞 越</w>
面 上</w>
野 号</w>
走 动</w>
财 季</w>
试 题</w>
血 泊</w>
蛋 白
蚌埠 市</w>
肿 胀</w>
米 饭</w>
第 23</w>
立 体</w>
睡 梦</w>
皮 尔斯</w>
百分 之
王世 坤</w>
温 和</w>
涵 洞</w>
池 塘</w>
汕 尾</w>
氰化 钠</w>
枪 杀</w>
来 得</w>
村 官</w>
普 通话</w>
日 照</w>
政策 性</w>
摩托 罗拉</w>
招 嫖</w>
护 盘</w>
德约 科维奇</w>
得 意</w>
张新 明</w>
张 呈
布鲁 克</w>
巡 防</w>
婚 纱
威 海</w>
天 山</w>
复 习</w>
填 补</w>
国际 法</w>
否 决</w>
吕 江</w>
分 组</w>
兼 并</w>
全 班</w>
克 林
代 号</w>
亚太 地区</w>
乔 某</w>
临沂 市</w>
七 星
er s</w>
194 1年</w>
预 赛</w>
返 航</w>
踏 板</w>
责任 制</w>
装 扮</w>
若 是</w>
苏 醒</w>
老 陈</w>
第十 八</w>
盟 军</w>
电 杆</w>
生产 线</w>
王 国
煤气 罐</w>
湾 区</w>
海 涛</w>
汪 冬根</w>
毛 利率</w>
武 昌</w>
普 拉
慌 张</w>
征 婚</w>
年 份</w>
平 原</w>
市场 经济</w>
宜 宾市</w>
天 伦</w>
大 案</w>
坐 镇</w>
国奥 队</w>
卫生 部</w>
办 人</w>
力 挺</w>
制 动</w>
冲 击
关注 度</w>
债 权</w>
信用 社</w>
供 认</w>
会议 室</w>
优 步</w>
人 者</w>
中 暑</w>
中 东部</w>
专 员</w>
下 线</w>
上 一
h u
U I</w>
N o
M S</w>
I D
196 3年</w>
预 留</w>
震 源</w>
限 速</w>
酒 席</w>
迫 于</w>
软 银</w>
转 给</w>
车 企</w>
身 孕</w>
视 野号</w>
营业 厅</w>
萍 乡市</w>
舍 不得</w>
结 余</w>
窗 台</w>
男 单</w>
电 价</w>
牧 业</w>
漫 游</w>
满 意
源 自</w>
温 家宝</w>
注册 制</w>
毒 素</w>
果 园</w>
旅行 团</w>
斑 斑</w>
控制 车</w>
技 师</w>
总 站</w>
张 常宁</w>
左 边</w>
婚 恋</w>
太阳 能</w>
大大 小小</w>
大 门口</w>
地 震
国 航</w>
哺 乳
君 子</w>
合 格
台 州市</w>
卢 布</w>
卡 住</w>
单 方面</w>
协 调
十 字</w>
副 作用</w>
刀 子</w>
农 活</w>
兴 建</w>
六 安</w>
全 局</w>
信 仰</w>
专业 化</w>
一 瞬间</w>
T -
I I</w>
A A</w>
2. 3</w>
1 200万</w>
１０ 月</w>
高 超</w>
马 里</w>
食 品
附加 费</w>
阅兵 式</w>
闹 剧</w>
闭 幕</w>
重 病</w>
转 机</w>
调 试</w>
认 领</w>
西 游</w>
蚊 子</w>
莆田 市</w>
网 速</w>
继承 人</w>
积分 榜</w>
离 场</w>
真 假</w>
疲 惫</w>
珠 海市</w>
牵 连</w>
片 子</w>
爆 燃</w>
点 火</w>
满 贯</w>
深 市</w>
深 山</w>
注 射
汪 某</w>
江 口</w>
桂 林市</w>
杰 出</w>
曹 文
显 眼</w>
投 产</w>
总 和</w>
念 斌</w>
小 威</w>
寻 租</w>
宿 州</w>
容 英</w>
奢 侈</w>
声 响</w>
坏 人</w>
哈 萨
和 尚</w>
吉 隆
双 色
卵 子</w>
区 级</w>
加 班
凝 聚</w>
公 婆</w>
八 旬</w>
健 康
佳 兆业</w>
亚 洲杯</w>
乌 兰
不 合</w>
上 吊</w>
L T
7 00
-2 -
鸿 海</w>
鲨 鱼</w>
长 龙</w>
过 境</w>
过 世</w>
辽 足</w>
让 座</w>
警务 室</w>
简 短</w>
破 口</w>
相 爱</w>
病 危</w>
疏 通</w>
留 尼
王 宇</w>
点 点</w>
漯 河市</w>
清 水
海珠 区</w>
法 尔
正 科级</w>
梁 振
树 上</w>
架 次</w>
枣 庄</w>
李 洪
排 行</w>
抢 票</w>
投 命</w>
微 商</w>
庆 安县</w>
尼 西亚</w>
宇 军</w>
宅 基地</w>
头 衔</w>
大 阪</w>
外 省</w>
地 王</w>
园 方</w>
咸 宁</w>
加 多宝</w>
刘 铁
刘 振
分 解</w>
养殖 户</w>
克 力</w>
伊 尔</w>
从 前</w>
亚 足联</w>
义 乌市</w>
举 一
不 论
‍ ‍</w>
O n
F D
EX O</w>
== ==
25 00万</w>
2. 4
1. 0
- 8</w>
青 铜</w>
零 花钱</w>
邮 寄</w>
选 择
话 语</w>
警 用</w>
落 泪</w>
自 闭
美 媒</w>
纠 葛</w>
累 累</w>
登 山</w>
疯 传</w>
玛 莎
潮 流</w>
游 泳
消 灭</w>
民主 党</w>
民 调</w>
检 举</w>
查 组</w>
杨 文
李 彦
本 事</w>
政 绩</w>
支持 者</w>
报 业</w>
打 响</w>
打 动</w>
张 浩</w>
张 强</w>
市 面</w>
太 子</w>
天花 板</w>
升 空</w>
勘 验</w>
动 辄</w>
出 卖</w>
凶 猛</w>
写 作</w>
倾 倒</w>
佩 佩</w>
交通 委</w>
交 管局</w>
五 角
乏 力</w>
中 锋</w>
r y</w>
P l
3 5亿</w>
2- 2</w>
10 9</w>
１ ．
馆 长</w>
颠 覆</w>
面 谈</w>
问 问</w>
邀 请
连 日</w>
运动 会</w>
辣 椒
赤 峰</w>
自然 保护区</w>
脑 部</w>
胡 晓
维 亚</w>
管 线</w>
玫 瑰
王本 余</w>
爆 破</w>
海 燕</w>
浓 厚</w>
水 机</w>
模 一样</w>
林 区</w>
日 本队</w>
无 所谓</w>
收 报</w>
指 导员</w>
报 收</w>
惠 民</w>
恩 施
忽 悠</w>
当 众</w>
废 除</w>
巴 卡</w>
富豪 榜</w>
始 县</w>
外 墙</w>
埃 文斯</w>
圣 日耳
口 腔</w>
厮 打</w>
动画 片</w>
几 百万</w>
内 侧</w>
克 里</w>
便利 店</w>
九 江市</w>
丽 娜</w>
东 亚</w>
下 架</w>
三 严</w>
一 模一样</w>
x in
P OS</w>
M o
2 20</w>
齐齐 哈尔</w>
高 处</w>
马 晓
雷 某</w>
金 服</w>
里 亚</w>
轮 番</w>
转 运</w>
车 次</w>
车 人</w>
言 行</w>
西 南部</w>
表 弟</w>
蓝 翔</w>
芝 加
艰 辛</w>
脉 搏</w>
联 盛</w>
紧 邻</w>
精 美</w>
精 品</w>
理 应</w>
热 传</w>
激 战</w>
清 明
涉 外</w>
海 淀区</w>
氏 度</w>
毫无 疑问</w>
每 晚</w>
棺 材</w>
检 讨</w>
林 森</w>
板 房</w>
杨 明</w>
期 末</w>
星 球</w>
旺 季</w>
敬 一
摄像 机</w>
搞 好</w>
揭 阳</w>
招 揽</w>
慢 性</w>
意见 书</w>
张 军</w>
寿 命</w>
守 法</w>
多样 化</w>
外 事</w>
坏 死</w>
哀 悼</w>
出版 社</w>
出 道</w>
军 民</w>
元 帅</w>
伦 特</w>
优 异</w>
事 业
万 某</w>
a g
F -
CN N</w>
Ap p</w>
30 0亿</w>
3 ·
197 4年</w>
100. 09</w>
食 客</w>
青 山</w>
阿扎 尔</w>
问 候</w>
长 跑</w>
邀 约</w>
递 给</w>
进 屋</w>
辽宁 舰</w>
足协 杯</w>
越 发</w>
赠 与</w>
至 关
至关 重要</w>
而 飞</w>
考 官</w>
翼 而飞</w>
纸 巾</w>
纳 什</w>
米 尔</w>
碰 上</w>
破 发</w>
码 处</w>
着 实</w>
白 皮书</w>
生 命
狗 肉
特 利</w>
特 ·
浏 阳</w>
流 行
汉 语</w>
横 穿</w>
桂 英</w>
李宗 伟</w>
普 选</w>
摄 氏度</w>
握 手</w>
接 纳</w>
护 航</w>
批 发
徒 手</w>
彬 彬</w>
张 艺谋</w>
岸 上</w>
属 地</w>
孤 独</w>
娃 儿</w>
天 上</w>
基 础
告 诫</w>
史 料</w>
厚 厚
卢卡 斯</w>
内 陆</w>
先 天性</w>
供 养</w>
传 开</w>
乐 县</w>
中 秋
中 关村</w>
东 市</w>
不 说</w>
不 翼而飞</w>
三 百</w>
v er
ta g</w>
e t</w>
I T
FI FA</w>
8 4
2. 4</w>
领 衔</w>
铁 矿石</w>
退 货</w>
财 务
芝加 哥</w>
自闭 症</w>
纳 税
米 歇
简 陋</w>
盖 板</w>
王 学
状 告</w>
特 性</w>
灵 魂</w>
湛 江市</w>
清 代</w>
消息 源</w>
海 滨</w>
污染 源</w>
毗 邻</w>
来 袭</w>
曲 靖</w>
方便 面</w>
摸 底</w>
挎 包</w>
投资 方</w>
手 势</w>
总 之</w>
张 磊</w>
平 行</w>
师 父</w>
妥 协</w>
奢 华</w>
大 打
复 发</w>
吉 布
可 用</w>
变 故</w>
南 门</w>
匝 道</w>
分 值</w>
共和 党</w>
入 手</w>
停车 费</w>
俊 峰</w>
主 干道</w>
丹 东</w>
中央 社</w>
东 城区</w>
不 大</w>
不 及
下 巴</w>
三 明</w>
4 -2-
2. 5
12 5</w>
10 年</w>
05 分</w>
0. 8
非 公开</w>
量 级</w>
邻 里</w>
遗 迹</w>
逝 者</w>
运 往</w>
轻 信</w>
跃 进</w>
起 家</w>
诚 实</w>
许 昌</w>
蒂 诺</w>
萌 萌</w>
胆 子</w>
老 外</w>
精 干</w>
碰 瓷</w>
玉 米
独 居</w>
爱 尔兰</w>
火 速</w>
满 身</w>
海 运</w>
泉 县</w>
河 村</w>
毒 瘾</w>
欣 慰</w>
检 索</w>
松 绑</w>
斯诺 登</w>
文学 奖</w>
摸 清</w>
捏 造</w>
拨 付</w>
总 编辑</w>
急 速</w>
巴 勒
实 弹</w>
姚 贝娜</w>
大吃 一
大 地</w>
夏 某</w>
城 东</w>
四 月</w>
吴 芳芳</w>
台 山</w>
可 贴</w>
发 觉</w>
双色 球</w>
南 站</w>
助 力</w>
前 途</w>
制 式</w>
刘 锋</w>
刑事 诉讼法</w>
再 不</w>
保 费</w>
使 劲</w>
佛罗 伦
亲 眼</w>
五 万</w>
丽 水</w>
主 机</w>
ar d</w>
197 3年</w>
16 8</w>
1 19
02 1-
黄子 韬</w>
黄 钰
黄钰 刚</w>
麻 醉
顾 某</w>
金 陵</w>
重 磅</w>
遵 义市</w>
违 法
车 载</w>
赛 程</w>
贾 跃
试 衣间</w>
设 卡</w>
讲 座</w>
补 助
营业 税</w>
菜 场</w>
英 尺</w>
舒 适</w>
老 伯</w>
结 石</w>
稍 后</w>
盖 帽</w>
用 工</w>
用 以</w>
王 平</w>
特 拉</w>
激 怒</w>
济 宁</w>
检 测
李 楠</w>
方 阵</w>
文 杰</w>
接 球</w>
捕 捞</w>
执 纪</w>
惠 城区</w>
张 翰</w>
底 层</w>
山 头</w>
小 波</w>
小 梁</w>
尊 敬</w>
审 结</w>
坚 信</w>
在 任</w>
吉 安</w>
化 妆</w>
剧 院</w>
争 相</w>
之 二</w>
主 席
不论 是</w>
下 乡</w>
i bo
V P</w>
C O
6 5%</w>
4. 5</w>
4- 2</w>
27 -</w>
200 0亿</w>
18 亿</w>
0 5月</w>
食 用
风 俗</w>
门 卫</w>
金沙 江</w>
过 渡
足 足</w>
贫困 县</w>
负 于</w>
谋 求</w>
诟 病</w>
血 案</w>
莉 莉</w>
英 勇</w>
芒 果</w>
肺 炎</w>
联 络
罢 工</w>
粗 略</w>
第 38</w>
第 19</w>
种 地</w>
相 距</w>
皇 家
清 远市</w>
法 律
江 水</w>
梅 州</w>
本 营</w>
早 晚</w>
日 产</w>
掩 饰</w>
拼 抢</w>
拟 定</w>
折 射</w>
怒 之下</w>
彻 查</w>
张 成
建 联</w>
小 赐</w>
大 白
大 化</w>
墓 志</w>
圣日耳 曼</w>
吴 曦</w>
右 腿</w>
口 供</w>
叠 加</w>
厚厚 的</w>
加 深</w>
出 路</w>
出 厂</w>
光 环</w>
充 实</w>
信 箱</w>
仲 裁
以 防</w>
从 政</w>
严 谨</w>
SD R</w>
98. 9</w>
24 万</w>
198 8.
196 4年</w>
10 00亿</w>
５ ０</w>
面 额</w>
震 撼</w>
阴 性</w>
阳 镇</w>
迪 亚
返 程</w>
足 坛</w>
红 楼
红楼 梦</w>
空 前</w>
理 工</w>
玛莎 拉蒂</w>
狂 奔</w>
清 新</w>
横 扫</w>
根 据
摆 渡</w>
拮 据</w>
急 之下</w>
志 伟</w>
德 基</w>
彝 族</w>
建 明</w>
庆 幸</w>
帕 克</w>
寂 寞</w>
孙伟 铭</w>
婉 拒</w>
大吃一 惊</w>
大 本营</w>
大 山</w>
外 币</w>
周 正
后 勤部</w>
制 图</w>
刑 警队</w>
切 入</w>
养 护</w>
偏 好</w>
供 求</w>
伊 万
交易 量</w>
乐 山</w>
中 兴</w>
p s</w>
F 1</w>
9 9%</w>
4-2- 3-1</w>
3- 2</w>
29 亿</w>
198 3.
195 6年</w>
126. com</w>
0. 4</w>
-0 6</w>
５ 万</w>
顺 市</w>
音 讯</w>
门 面</w>
载 人</w>
说 说</w>
讨 债</w>
蒙古 国</w>
翻 红</w>
美 国队</w>
编 织
综 指</w>
精神 病
米 /
研讨 会</w>
留 念</w>
珠 宝
王 伟</w>
牢 固</w>
游 艺</w>
洽 谈</w>
波 什</w>
武 某</w>
歌 舞
概 股</w>
桑 切
格里 芬</w>
根 源</w>
曹 军</w>
新 快报</w>
数 码</w>
放 贷</w>
打 球</w>
总 价值</w>
急 剧</w>
快 播</w>
录 入</w>
平 凡</w>
委 托人</w>
套 取</w>
失 足</w>
大打 出手</w>
备 用</w>
固定 资产</w>
商 洛</w>
同 业</w>
发 财</w>
危 害性</w>
卡塔 尔</w>
修 好</w>
信 号
信 件</w>
亚特 兰大</w>
中 车</w>
a r</w>
28 %</w>
200 9.
0. 3</w>
龙 岗区</w>
高 点</w>
骁 龙</w>
驱 逐</w>
马 林</w>
预 算
雷 克萨斯</w>
阿尔 维斯</w>
钱 德勒</w>
钦 州</w>
连 带</w>
转 学</w>
车 长</w>
车 底</w>
路 站</w>
股 灾</w>
罂 粟</w>
约翰 ·
私 信</w>
盖 章</w>
皮 带</w>
电影 院</w>
生 殖</w>
珠 峰</w>
狐 狸</w>
炮 兵</w>
溢 价</w>
江 河</w>
晋 江市</w>
昆 仑</w>
政府 性</w>
擒 获</w>
手术 费</w>
总 署</w>
张晓 军</w>
床 位</w>
师 长</w>
小 两口</w>
字 眼</w>
姥 姥</w>
好 评</w>
大 雪</w>
夏 威
口 味</w>
发 科</w>
卫 士</w>
南京 大屠杀</w>
十 九</w>
创 始</w>
刘 永
分 裂
公 认</w>
保 洁
保 值</w>
供 需</w>
上 加
r a</w>
96 7
4 500</w>
25 0万</w>
15 年</w>
0. 8</w>
１ 年</w>
龙 岩
颗 粒</w>
非 机动车</w>
零 工</w>
隐 约</w>
防 护
铁 链</w>
钢 板</w>
选 民</w>
赶 忙</w>
赵 薇</w>
表 妹</w>
行 骗</w>
花 顺</w>
老 根</w>
组 团</w>
纳 粹</w>
米 勒</w>
督 导</w>
疏 解</w>
燕 赵</w>
潜水 员</w>
淀 粉</w>
水 厂</w>
楼 继伟</w>
林 志
智 能
新疆 队</w>
指 派</w>
执 行人</w>
征 税</w>
强 国</w>
张 雨绮</w>
开 武</w>
崔 可夫</w>
屏 蔽</w>
尹 某</w>
宣 扬</w>
宜 居</w>
存 活</w>
威 市</w>
太 婆</w>
天 河区</w>
大 豆</w>
大 专</w>
堵 截</w>
地 势</w>
哭 诉</w>
周 知</w>
听 从</w>
同 级</w>
史 蒂
危险 性</w>
南 开</w>
南 华</w>
匆 忙</w>
包 子</w>
劝 架</w>
体育 馆</w>
以 致</w>
亮 亮</w>
交 房</w>
五 月</w>
丰 市</w>
下 月</w>
一次 次</w>
99. 89</w>
4- 3-
23 万</w>
201 0.
2. 8
２０１ ２年</w>
鸟 类</w>
香 蕉</w>
雷 拉</w>
隆 重</w>
陈 亮</w>
长 乐
量 化</w>
选 中</w>
诺 维
诊 治</w>
警 觉</w>
解 约</w>
街 区</w>
范 加尔</w>
航天 局</w>
臭 氧</w>
耗 费</w>
第 25</w>
第 17</w>
竞 标</w>
目 组</w>
监 利</w>
白 银</w>
申 维
生产 商</w>
滁 州</w>
湖 镇</w>
深 陷</w>
淫 罪</w>
淡 水</w>
海 通</w>
柜 子</w>
材 质</w>
木 兰</w>
曹文 姣</w>
昭 通市</w>
星 人</w>
文 昌</w>
救 济</w>
操 控</w>
招 待</w>
抚 顺</w>
扰 民</w>
扫 黄</w>
打 理</w>
打 工
愈 发</w>
得 逞</w>
开 机</w>
废 旧</w>
广 汽</w>
尔 巴
孔 子</w>
好 玩</w>
失 手</w>
大 路</w>
外 加</w>
国土 部</w>
嘱 咐</w>
吴 坤
吉 利</w>
台 下</w>
初 次</w>
刚 性</w>
再 生人</w>
兔 子</w>
众 所
他 俩</w>
人民 军</w>
亦 菲</w>
主 打</w>
丧 生</w>
业 者</w>
业 率</w>
专 稿</w>
T F
5 6.
4 50</w>
22 ：00</w>
196 5年</w>
11 8</w>
05 :
.com /</w>
高 等</w>
马卡 报</w>
韶 关市</w>
难 点</w>
金 华
采 样</w>
遗 传</w>
迈 出</w>
脚 趾</w>
老 周</w>
翻 车</w>
群 殴</w>
编织 袋</w>
私 家</w>
盘 龙
监 管局</w>
痊 愈</w>
玉 顺</w>
满 释放</w>
清洁 工</w>
清 明</w>
洛 佩斯</w>
洗衣 机</w>
泸 州市</w>
波 音</w>
沿 岸</w>
沙 坪
民 居</w>
栅 栏</w>
杨 洋</w>
李 秀
本 该</w>
最高 检</w>
易 燃
推 送</w>
投 机</w>
扬 尘</w>
执 导</w>
彗 星</w>
强 暴</w>
层 级</w>
小 金库</w>
对 决</w>
实 录</w>
宁 愿</w>
宁 德</w>
婚 姻
妇 产科</w>
头 皮</w>
大 唐</w>
大 办</w>
多 重</w>
基 站</w>
埃弗 顿</w>
场 馆</w>
嘲 笑</w>
反 扑</w>
北 斗</w>
化 验</w>
到 时</w>
利 空</w>
刑 满释放</w>
冰 雪</w>
克 ·
假 钞</w>
佛罗伦 萨</w>
休 息
任 意</w>
人工 智能</w>
人 和</w>
亲 吻</w>
二 三</w>
事 前</w>
中秋 节</w>
中 医药</w>
不 必要</w>
上 饶
三 万</w>
一 日</w>
mp 4</w>
es t</w>
2. 5万</w>
驻马 店市</w>
颅 内</w>
顺 手</w>
面 对面</w>
雷 暴</w>
阿 洛伊
阜 阳市</w>
酷 似</w>
达 州市</w>
超 大</w>
装 载</w>
莲 花</w>
莫 名
荆 楚网</w>
肾 脏</w>
职 场</w>
结构 性</w>
粗 暴</w>
签 发</w>
第 27</w>
笑 不得</w>
神 器</w>
矿 区</w>
皮 鞋</w>
猎 杀</w>
特 派</w>
漫 游
满 月</w>
深 情</w>
洗 钱</w>
汇 聚</w>
水 星</w>
民 俗</w>
毕 节
次 生</w>
斯 大
改 写</w>
支 架</w>
捂 住</w>
挪 威</w>
手 掌</w>
房 顶</w>
惊 心</w>
张呈 栋</w>
屠 宰
对 付</w>
安 康市</w>
学 系</w>
季 报</w>
大气 层</w>
喜 悦</w>
售 出</w>
哪 家</w>
吕 梁
向 阳</w>
古 老</w>
午 间</w>
刘铁 男</w>
冯 小刚</w>
便 民</w>
低 收入</w>
众所 周知</w>
代 购</w>
东 道
不 成
上 阵</w>
— —
S H</w>
5 00亿</w>
35 00万</w>
3. 6
28 万</w>
2 60</w>
199 0.
196 8年</w>
0. 5
高尔夫 球场</w>
高 涨</w>
预 选
顶 楼</w>
零 钱</w>
闯 进</w>
采 洁</w>
酸 盐</w>
议 论
莹 莹</w>
荔 枝</w>
联系 人</w>
缓 和</w>
组 委会</w>
突 袭</w>
申维 辰</w>
生 态
王全 安</w>
流 水</w>
洞 口</w>
每 家</w>
横 向</w>
植物 人</w>
来 人</w>
李小 平</w>
权 证</w>
文 理</w>
收 视
挫 折</w>
拜 访</w>
托 马斯</w>
战 车</w>
志 勇</w>
志 刚</w>
征 用</w>
当 期</w>
开 创</w>
廊 坊市</w>
广 阔</w>
帅 哥</w>
山 羊</w>
对 冲</w>
定 金</w>
宋 林</w>
安 居
哭 笑不得</w>
命 题</w>
各 族</w>
吃 空饷</w>
反 感</w>
印度 尼西亚</w>
制 作
创业 者</w>
刘 某
代 驾</w>
代 言</w>
代 会</w>
互 信</w>
中国 籍</w>
中 秋</w>
下 沉</w>
七 里
u b
PM 10</w>
E l
5 20</w>
2015-0 8
195 7年</w>
鸽 子</w>
预 估</w>
项目 部</w>
霉 素</w>
障 碍
阿 隆</w>
长 安区</w>
锦 州</w>
通 宵</w>
近 些年</w>
财 税</w>
该 项</w>
议论 纷纷</w>
西班 牙
裸 体</w>
自 述</w>
自 卫
肇事 车</w>
老 二</w>
罢 免</w>
红 火</w>
第 26</w>
税 款</w>
票 面</w>
示 威
监察 室</w>
瓶 颈</w>
王 刚</w>
爬 山</w>
火 点</w>
淘宝 网</w>
波 尔
气 息</w>
此 刻</w>
林 场</w>
朱明 国</w>
本 能</w>
晋 城</w>
方 形</w>
新 乡市</w>
敬一 丹</w>
揭 晓</w>
拖 拉
我 区</w>
张 云
干 什么</w>
巨 星</w>
工 费</w>
寄 生
子 宫</w>
奸 淫</w>
奥 林
失 灵</w>
塑 造</w>
堂 哥</w>
坐 落</w>
商 水县</w>
发 货</w>
卷 宗</w>
南 美</w>
刘 春
列 举</w>
分 得</w>
六 十</w>
会 堂</w>
优 衣
交通 部</w>
为 时
不 善</w>
a m</w>
Gal ax
3 4%</w>
25 -
2 2万</w>
197 2年</w>
0. 2%</w>
高尔 夫</w>
饭 馆</w>
集 训</w>
钻 戒</w>
选 定</w>
这 样
过 半时</w>
贾跃 亭</w>
负 载</w>
详 见</w>
西 湖区</w>
行政 区</w>
血 流</w>
营 口</w>
荣 获</w>
综 述</w>
结 账</w>
皇家 一号</w>
病 逝</w>
畜 牧</w>
男 神</w>
热 身</w>
点 头</w>
激 活</w>
消防 队</w>
欠 费</w>
机 关
木 县</w>
服装 店</w>
月 工资</w>
暴 躁</w>
旗 帜</w>
文 艺
推 算</w>
持 续性</w>
拖 车</w>
打 针</w>
忧 虑</w>
徇 私
张志 超</w>
年 迈</w>
市场 价</w>
崭 新</w>
局 限</w>
尹 相
安 溪</w>
失 血</w>
外 公</w>
埋 怨</w>
地 中海</w>
围 挡</w>
后备 箱</w>
反 腐
南 籍</w>
华 章</w>
别 克</w>
刘德 华</w>
分 辨</w>
冲 锋
停 滞</w>
低 落</w>
交 界</w>
二 连败</w>
临时 工</w>
丰 厚</w>
下 同</w>
三 千</w>
t o</w>
e y</w>
I BM</w>
6 000万</w>
36 00</w>
198 2.
100. 2</w>
0 4-
陈 明
这样 一来</w>
谢 绝</w>
评 委</w>
解 散</w>
芙 蓉
肺 癌</w>
翻 越</w>
综合 性</w>
管理 人</w>
着 装</w>
盟 友</w>
田 径</w>
玉 林市</w>
物 件</w>
满 满</w>
渣 土
洗 手</w>
永 正</w>
武侯 祠</w>
李 孟
有 量</w>
星 驰</w>
时 限</w>
政 商</w>
抽 屉</w>
德里 奇</w>
强 有力</w>
市 直</w>
岭 市</w>
山 地</w>
山 下</w>
小 长假</w>
小 叶</w>
天 线</w>
增 添</w>
四 分之一</w>
呵 呵</w>
名 城</w>
包 装
出 嫁</w>
克林 顿</w>
光 辉</w>
倒 地</w>
低 俗</w>
亚 运会</w>
主 业</w>
中 概股</w>
上 港</w>
三分 之二</w>
5 4.
37 00</w>
27 万</w>
16 亿</w>
黄 洋</w>
黄 岩
顶 替</w>
难 关</w>
赵 少
订 购</w>
覆 盖
莫名 其
莫名其 妙</w>
自动 化</w>
粉 尘</w>
第十 五</w>
祈 祷</w>
盲 区</w>
白 条</w>
白 人</w>
田仁 信</w>
田 欣</w>
献 血
满意 度</w>
浩 浩</w>
毕节 市</w>
毁 坏</w>
晚 餐</w>
新 余</w>
换 取</w>
挺 身
抚 慰
批 量</w>
战 罢</w>
成交 价</w>
惩 戒</w>
必 定</w>
彼 得
开 进</w>
巴尔 克斯</w>
已 故</w>
工 期</w>
就 任</w>
尔 曼</w>
安 定</w>
失 效</w>
城关 镇</w>
唏 嘘</w>
响 声</w>
反 贪
原 县</w>
八 一
俨 然</w>
伤 医</w>
8 级</w>
6 5.
5 7.
28 00</w>
2. 8</w>
19 万</w>
0 4月</w>
.c n
高 危</w>
食 盐</w>
雕 刻</w>
长 庆</w>
邵 某</w>
运 力</w>
贴 近</w>
衬 衫</w>
血 性</w>
蒂 亚
营业 员</w>
脱 险</w>
育 儿</w>
联 播</w>
积 率</w>
示威 者</w>
熟 练</w>
民 企</w>
正 视</w>
杰 拉德</w>
李 勇</w>
替 代
旁 人</w>
手 册</w>
情 急之下</w>
恶 臭</w>
怨 恨</w>
忙 于</w>
引 产</w>
开 封市</w>
广 厦</w>
巴 塔
工 钱</w>
展 厅</w>
容 积率</w>
婚 事</w>
吓 人</w>
受 益
历史 性</w>
剖 腹
到 手</w>
冤 假
冤假 错案</w>
农 具</w>
养 猪</w>
公 道</w>
偷 窃</w>
修 补</w>
保 证书</w>
亚 硝
举 起</w>
下 辖</w>
p a
in a
O P
M VP</w>
E d
6 4.
2014-0 8-0
11 3</w>
1. 5%</w>
0 2-
龙 门
高 县</w>
镜 子</w>
金 森</w>
通行 费</w>
选 取</w>
迈克 尔·
足 额</w>
贝 弗
证券 化</w>
装 满</w>
表 格</w>
行政 区域</w>
血 站</w>
萧 山</w>
范 德
胎 盘</w>
股份 制</w>
股份 公司</w>
继 父</w>
纳税 人</w>
粪 便</w>
粉 碎
篡 改</w>
石 狮</w>
直 流</w>
王 健</w>
湘潭 市</w>
流 通
沭 阳</w>
水 资源</w>
水 河</w>
水 产</w>
榆 阳区</w>
棍 棒</w>
梅 德
板 凳</w>
本 站</w>
期 权</w>
暂 住
旅 程</w>
断 电</w>
敞 开</w>
教 所</w>
故 乡</w>
收 盘价</w>
描 绘</w>
接 班</w>
拐 弯</w>
打 扰</w>
张 田欣</w>
库 区</w>
字 条</w>
奥迪 车</w>
大 过</w>
堰 市</w>
国 立</w>
因 果</w>
四 五十</w>
告 示</w>
发 抖</w>
包 工头</w>
前 列</w>
冷 战</w>
先 例</w>
佳 木
传 单</w>
优衣 库</w>
人民 警察</w>
书 画</w>
乘 机</w>
东 队</w>
一个 半</w>
el l
9 0万</w>
6 8.
2 万亿</w>
01 :
非 但</w>
靓 颖</w>
青 春
阿洛伊 西奥</w>
阿 卜
门 迪</w>
重 创</w>
连 任</w>
财政 厅</w>
血 栓</w>
董事 局</w>
药 监局</w>
脐 带</w>
老 龄化</w>
翻 盘</w>
网 游</w>
经济 带</w>
纳 斯达
纪 年</w>
筹 资</w>
相 近</w>
监 外</w>
王晓 峰</w>
狗肉 节</w>
濮 阳</w>
漫游 费</w>
海 湾</w>
水 深</w>
母 婴</w>
欢 乐</w>
榴 弹</w>
桥 村</w>
来 华</w>
李 辉
李 世
攻击 波</w>
收 藏
支 柱</w>
撤 出</w>
搭 讪</w>
拉 斯
拆迁 户</w>
抚慰 金</w>
打 闹</w>
手 印</w>
成 功率</w>
慕 尼
恰 当</w>
张 琳
巴 恩斯</w>
宾 利</w>
子 弟</w>
奶 牛</w>
头 镇</w>
堂 弟</w>
土 司</w>
喊 声</w>
哈 默德</w>
同 名</w>
合 金</w>
反贪 局</w>
博格 巴</w>
包 容</w>
兑 付</w>
依 纪</w>
供应 量</w>
产业 园</w>
交 委</w>
五 百</w>
丽 媛</w>
主 因</w>
中 建</w>
丝 网</w>
不 至于</w>
上 饶</w>
一 口气</w>
we ibo
U F
8 7.
3. 5
26 亿</w>
197 0年</w>
齐 奥</w>
饲 养
领导 层</w>
顶 尖</w>
音 响</w>
面 貌</w>
铁 轨</w>
钱 物</w>
都 网</w>
适 龄</w>
过 早</w>
车 展</w>
财 长</w>
记 大过</w>
触 目
西 城区</w>
自卫 权</w>
统 一
纳斯达 克</w>
籍 贯</w>
科 普</w>
砖 块</w>
相 声</w>
盗 取</w>
疼 爱</w>
球 拍</w>
爆炸 声</w>
滇 池</w>
梧 州</w>
案 卷</w>
李永 志</w>
明 园</w>
明 亮</w>
方 队</w>
整 车</w>
摄 像</w>
掌 声</w>
投 融资</w>
扔 下</w>
战 国</w>
快 件</w>
德 比</w>
彰 显</w>
强 制性</w>
开 裂</w>
平 局</w>
小 毛</w>
小 宇</w>
家 居</w>
大 手
多 利亚</w>
复 婚</w>
墙 面</w>
围 栏</w>
商 洛
哆 啦</w>
品 尝</w>
呵 护</w>
取 样</w>
发 症</w>
反 舰</w>
厚 度</w>
南 阳市</w>
午 休</w>
分 批</w>
冬 奥会</w>
元/ 股</w>
停 机</w>
借 款人</w>
事 变</w>
ot e</w>
A N
6 3
3 6%</w>
2. 7
高 拉特</w>
预选 赛</w>
集 成</w>
难 以
闹 市</w>
远 东</w>
路 网</w>
路 基</w>
评论 员</w>
观 赏</w>
要 点</w>
营业 额</w>
能源 局</w>
聘 金</w>
罗 伯
缺 氧</w>
经 信
知 觉</w>
盘 活</w>
病 因</w>
玩 乐</w>
焦 点
温 柔</w>
消 极</w>
海 都网</w>
海 岛</w>
油 品</w>
河 段</w>
沉 迷</w>
棉 花</w>
格 里</w>
杨 家
未 婚
昼 夜</w>
明 华</w>
无 形</w>
数 千万</w>
搬 运</w>
捍 卫</w>
报 表</w>
抢 眼</w>
康 泰</w>
库尔 图
广 播
并 发症</w>
干 尸</w>
宏 亮</w>
安德 森</w>
宇 航局</w>
姑 息</w>
塞 维
国 法</w>
吐 鲁
名 声</w>
县 处级</w>
南 城</w>
副 职</w>
分裂 症</w>
出 入口</w>
兼 顾</w>
元 首</w>
体 积</w>
低 估</w>
井 口</w>
二 甲
中 专</w>
两 口子</w>
不 怎么</w>
不 了
in d</w>
bo x</w>
9 4
8 ·
6. 5</w>
4 8%</w>
3 8%</w>
2 80</w>
13 -
100. 3</w>
10 ：00</w>
： 30</w>
黄 家
高等 教育</w>
高 尚</w>
陈 绍
阅读 量</w>
间 隙</w>
铁 棍</w>
邹 某</w>
遗 忘</w>
车 流量</w>
购 入</w>
诚 恳</w>
触目 惊心</w>
览 会</w>
表 扬</w>
舍 得</w>
腐 蚀</w>
肯 尼
翻 供</w>
罗 本</w>
管 委</w>
第十 四</w>
窨 井</w>
秋 天</w>
离 退休</w>
短 发</w>
相 伴</w>
白 纪年</w>
登 陆
王 明
猜 想</w>
特 鲁
燕 子</w>
渣土 车</w>
格 雷
机 车</w>
有 史
料 人</w>
收视 率</w>
收 缩</w>
收 款</w>
抓 起</w>
慈 溪</w>
情 愿</w>
得 起</w>
巧 克力</w>
崔 龙海</w>
小 麦</w>
将 士</w>
宏 达</w>
完 胜</w>
失 信</w>
太阳 系</w>
大 王</w>
垂 危</w>
商 学院</w>
周 迅</w>
升 学</w>
决 策
光 顾</w>
信息 网</w>
信 誉</w>
五六 十</w>
买 提
为 人
临 走</w>
万 妙
一 味</w>
o g
A L
6 0亿</w>
4 ·
1- 4</w>
0 1月</w>
３ ０</w>
齐齐 哈尔
黄 某
餐 饮
鞠 躬</w>
集 体
酒 气</w>
邻 近</w>
迈 克尔</w>
转 手</w>
身 一
践 行</w>
起 源</w>
赵少 麟</w>
贝弗 利</w>
谋 私</w>
许 久</w>
被 害
虚 报</w>
莱昂 纳德</w>
花 坛</w>
胜 利
肇事 罪</w>
联 席
老 吴</w>
维 金斯</w>
结 案</w>
第 28</w>
确 凿</w>
盗窃 罪</w>
留 存</w>
热 潮</w>
淘 金</w>
海 鸥</w>
流 窜</w>
洪 秀
泊 位</w>
毒 症</w>
毒 枭</w>
校 门口</w>
木 质</w>
晃 动</w>
显示 屏</w>
是 的</w>
攻 坚</w>
探 矿权</w>
拖拉 机</w>
找 上门</w>
手 电筒</w>
房产 税</w>
成 名</w>
惨 败</w>
惊 慌</w>
情 报
怀 化</w>
征 兆</w>
录 用</w>
幼 童</w>
市 属</w>
巴 克</w>
小 何</w>
宝 安</w>
奥林 匹
大 伙</w>
多 特
外 遇</w>
回 访</w>
吕梁 市</w>
台 媒</w>
勒 布朗</w>
决 算</w>
冯 志明</w>
冒 烟</w>
内 脏</w>
兴 县</w>
关 头</w>
偷 渡
偏 离</w>
倾 覆</w>
使用 者</w>
体 量</w>
会 展</w>
今 报</w>
亚 裔</w>
举 证</w>
S U
I N
C B
5 9.
12 2</w>
1. 9</w>
0- 1</w>
龙 山</w>
齐 某</w>
食 材</w>
雹 灾</w>
陈 景
陈 国
阿斯 顿
阿 隆
铁 锤</w>
退休 金</w>
载 体</w>
责任 感</w>
责任 事故</w>
订 立</w>
观察 者</w>
胖 子</w>
米歇 尔</w>
第 22</w>
秦皇 岛市</w>
福 剑</w>
直 塞</w>
皮 尔
生活 会</w>
潜 水</w>
海 路</w>
海 县</w>
永 安</w>
毕 福剑</w>
梯 子</w>
标志 性</w>
杀伤 力</w>
无 情</w>
文 明
收 买</w>
推 向</w>
接 口</w>
指挥 官</w>
拘 留
承 建</w>
截 获</w>
战略 性</w>
戒 毒
意 味</w>
张 二
庆 典</w>
幽 默</w>
帷 幕</w>
市 里</w>
巨 人</w>
容 貌</w>
委 托
声 援</w>
域 性</w>
圆 明园</w>
国 性</w>
同 龄</w>
发 生
千 瓦</w>
冰 冷</w>
冬 生</w>
冒 领</w>
全 村</w>
党 性</w>
俊 杰</w>
伦 斯</w>
五 花
乳 腺癌</w>
个 税</w>
xj b
weibo .com/
http:// weibo.com/
4 80</w>
38 00</w>
3 20</w>
24 亿</w>
19 2
1. 8万</w>
0- 0</w>
黄 淮</w>
高 高
陈 小玲</w>
透明 度</w>
退 赃</w>
达 屋</w>
轻 重</w>
轻 取</w>
路 政</w>
赌 债</w>
计 价</w>
规范 性</w>
要 价</w>
西 沙</w>
行政 诉讼</w>
致 癌</w>
胡 子</w>
精 密</w>
粉 末</w>
租 户</w>
瞭 望</w>
盲 人</w>
盛 传</w>
监察 部门</w>
白 某</w>
王 梅</w>
海 归</w>
求 是</w>
比特 币</w>
根据 地</w>
李 国
本科 生</w>
晋 中</w>
无 从</w>
斯 图
敏 感
插 入</w>
挺身 而出</w>
挨 着</w>
拜 年</w>
拉 拢</w>
报 批</w>
抢劫 案</w>
抢 下</w>
成 家</w>
愧 疚</w>
德罗 巴</w>
德 州市</w>
彩 虹</w>
张 一
度假 村</w>
婆 媳</w>
塔 斯</w>
地 道</w>
园 路</w>
回 波</w>
喜 达屋</w>
吓 唬</w>
右 下角</w>
参 拜</w>
博士 生</w>
北 海市</w>
分 区</w>
关 区</w>
元/ 月</w>
伤 疤</w>
人 性</w>
亚 历
乖 巧</w>
东道 主</w>
东 航</w>
不 妨</w>
一 怒之下</w>
We b</w>
J -</w>
6 12
15 -
0. 7
高 一</w>
飞 来</w>
颅 脑</w>
雕 像</w>
防 疫</w>
钢 琴</w>
重 金属</w>
里 边</w>
鄱 阳湖</w>
违 约
轮 奸</w>
足 球
贫 血</w>
警 犬</w>
脑 震荡</w>
脐 橙</w>
老 爸</w>
线 图</w>
繁 育</w>
篮 子</w>
第 54</w>
第 34</w>
电 讯
王 国</w>
灵 璧
满 分</w>
深 色</w>
消费 税</w>
浪 潮</w>
法尔 考</w>
油 罐</w>
氰化 物</w>
枪 声</w>
李宝 俊</w>
本 部</w>
有史 以来</w>
断 续续</w>
断 断续续</w>
断 定</w>
文 本</w>
撕 裂</w>
推 车</w>
抢 点</w>
抗 生素</w>
惊 动</w>
恍 惚</w>
心 肌
影视 剧</w>
彭 帅</w>
异 化</w>
帕 尔
巴 西
巴 特勒</w>
左 下角</w>
小 吃
妖 记</w>
奥 拉</w>
大 钞</w>
大 理
大 棚</w>
境 地</w>
唐 代</w>
发 起
原 审</w>
南 极</w>
卓 越</w>
北 纬</w>
包 头</w>
剧 中</w>
剖 析</w>
分 校</w>
关 怀</w>
公 私</w>
全 国性</w>
佩 兰</w>
事 馆</w>
中央 委员</w>
专 用
不 曾</w>
下 级</w>
下 半时</w>
上 证
一 百
xjb k
xjbk x</w>
http://weibo.com/ xjb</w>
UF O</w>
S 6</w>
L e
98. 7</w>
967 17</w>
9 7%</w>
2. 0
186 110
186110 96717</w>
12 月份</w>
02 :
鼠 药</w>
鲁 尼</w>
雷 毅</w>
阿 华</w>
铲 车</w>
里 区</w>
选 出</w>
赫 然</w>
诱 饵</w>
解 雇</w>
装 备
芬 兰</w>
芜 湖市</w>
腐 败
背 面</w>
老 化</w>
着 眼</w>
眼 眶</w>
界 点</w>
申 遗</w>
生 怕</w>
烟 厂</w>
浏 阳市</w>
水 晶
水 坑</w>
水 土</w>
标 记</w>
杨子 晴</w>
李 天
景 春华</w>
是 非</w>
明 朗</w>
无 知</w>
无 几</w>
整 洁</w>
数 以
振 兴</w>
打 压</w>
慕尼 黑</w>
惊 叹</w>
心 病</w>
心 理学</w>
开 挖</w>
尿 毒症</w>
小 贾</w>
富 商</w>
密 密
宜 春</w>
宏 伟</w>
嫦 娥</w>
夜 总会</w>
夏威 夷</w>
国 门</w>
困 者</w>
四川 人</w>
囚 犯</w>
唱 片</w>
右 翼</w>
原 理</w>
化 率</w>
勤 奋</w>
刘 亦菲</w>
分 辨
农 业局</w>
写 入</w>
公益 性</w>
充 值</w>
健 身
保 税
保 守
何 军</w>
乡 人</w>
中 社</w>
中 环</w>
东 经</w>
一 等奖</w>
en t
Galax y</w>
7 ·
6- 0</w>
6 7.
30 年</w>
30 1</w>
2. 0</w>
2 9%</w>
197 8.
195 8年</w>
２ ９日</w>
马 丁
降 临</w>
阵 营</w>
镇 里</w>
遂 宁</w>
过 问</w>
迅 雷</w>
赵 晓
资 本金</w>
说 不定</w>
试 射</w>
训练 场</w>
警 长</w>
英 媒</w>
若 琪</w>
舌 头</w>
腹 中</w>
老 头</w>
美 人
置 于</w>
缘 由</w>
米/ 秒</w>
瘦 身</w>
田 地</w>
熬 夜</w>
激 素</w>
流浪 狗</w>
洛 夫</w>
泰 州市</w>
油 漆</w>
求 情</w>
梁 华</w>
村 落</w>
李辉 峰</w>
昨 夜</w>
昌 平</w>
时 节</w>
斑马 线</w>
文 身</w>
教 养</w>
教 会</w>
放 手</w>
摩 纳
控 告</w>
择 日</w>
扫 地</w>
打 仗</w>
惠 若琪</w>
您 好</w>
微 微</w>
微 信
广 元
平 面</w>
师范 学院</w>
市 镇</w>
属 性</w>
小 飞</w>
小 官</w>
实 用</w>
宜 兴</w>
学 界</w>
大 二</w>
外交 官</w>
坪 村</w>
在 先</w>
喂 养</w>
发 审
助 学</w>
公 用</w>
先 期</w>
像 素</w>
候 见</w>
乐 趣</w>
中国 海</w>
下 场</w>
n i
V -
C -</w>
23 00</w>
0. 0</w>
龙凤 胎</w>
面 目
附 院</w>
阿卜 杜
阿 联
门 人</w>
金 率</w>
郭 敬明</w>
郑 东</w>
邮 轮</w>
追 诉</w>
迷 信</w>
辽 沈</w>
贫 穷</w>
败 坏</w>
调 配</w>
触 发</w>
要 害</w>
行 径</w>
蜡 像</w>
脚 踝</w>
职 者</w>
考 取</w>
老 年
第 35</w>
第 30</w>
竞 猜</w>
相 传</w>
理 发店</w>
王 伟
滋 味</w>
混 战</w>
混 合
注 目</w>
波 利</w>
棍 子</w>
柜 员</w>
架 设</w>
李 大
期 满</w>
日 趋</w>
旗 舰</w>
新 城区</w>
教 体局</w>
揪 心</w>
招 考</w>
抗 法</w>
徒 弟</w>
征 信</w>
弗 拉
平 和</w>
帮 扶</w>
好 好
奉 化</w>
天 生</w>
外 债</w>
增 城</w>
后 事</w>
台 湾
发帖 人</w>
印 制</w>
华 声</w>
北 控</w>
剂 量</w>
利 人</w>
刘 嘉
兽 医</w>
兴 国</w>
六 道
儿童 节</w>
停 火</w>
保税 区</w>
伊 斯</w>
人 队</w>
了 算</w>
举 止</w>
个 性化</w>
不了 了之</w>
不 能
VI P</w>
LT E</w>
L G
Ex p
30 -</w>
3 9%</w>
19 %</w>
0. 5%</w>
３０ 日</w>
齐齐哈尔 市</w>
魅 族</w>
面 值</w>
非 银</w>
陈 勇</w>
防盗 网</w>
长 三角</w>
银 幕</w>
选 秀</w>
行 事</w>
落 定</w>
苍 南</w>
花 销</w>
自 缢</w>
自 治</w>
职 级</w>
第十 七</w>
第 24</w>
租 车</w>
科 协</w>
离 任</w>
监 区</w>
留 住</w>
申请 书</w>
犯 法</w>
永 华</w>
棉 被</w>
栋 梁</w>
李华 波</w>
李 军</w>
权 重</w>
有 色
摩 天
排 斥</w>
总 人口</w>
心 玥</w>
彩 票
张 军
库尔图 瓦</w>
平 平</w>
左 眼</w>
小 欣</w>
学 子</w>
塞维 利亚</w>
堆 满</w>
回 暖</w>
古 蔺
占 先</w>
单 车</w>
华 龙
劲 儿</w>
出 家</w>
准 确
共 事</w>
克 劳
偏 差</w>
依 规</w>
亲 爱</w>
五角 大楼</w>
上 班
8 000万</w>
5 3.
4 00亿</w>
１９ ９
１ ６
１ ５日</w>
马 库
预 示</w>
隆 多</w>
金华 市</w>
逛 街</w>
进 修</w>
过 人</w>
迅 猛</w>
路易 斯</w>
路 灯</w>
谷 春
记 忆
虫 子</w>
胜 诉</w>
翻 身</w>
罐 体</w>
终 场</w>
纸 箱</w>
索 性</w>
管 处</w>
省 区</w>
相 片</w>
生 生</w>
王文 军</w>
熄 火</w>
照 常</w>
渲 染</w>
涌 现</w>
活 动
洪秀 柱</w>
桑 拿</w>
李亚 鹏</w>
木 苦
暗 中</w>
暂 住</w>
昭 通</w>
无 处</w>
断 绝</w>
放 射
摩纳 哥</w>
摇 晃</w>
拍 摄
投票 权</w>
年 检</w>
居民 区</w>
导 火
寄生 虫</w>
安 镇</w>
孝 感</w>
字 头</w>
女 朋友</w>
夸 大</w>
处 境</w>
回 乡</w>
商 用</w>
医 务
到 访</w>
分辨 率</w>
关 好</w>
入 睡</w>
储 粮</w>
乐 队</w>
义 县</w>
严 防</w>
丢 掉</w>
世 人</w>
s s
on e</w>
P o
4- 1</w>
4 4%</w>
3 1-
200 9</w>
麦 斯</w>
顺 应</w>
面目 全
面目全 非</w>
静 静</w>
陈 安
阿 德里
阿 力
阵 性</w>
连云 港市</w>
身 患</w>
让 步</w>
讨 厌</w>
虚 商</w>
藏 族</w>
老 大爷</w>
羽毛 球拍</w>
缺 水</w>
立法 会</w>
着 重</w>
皮 克</w>
白 蚁</w>
瑕 疵</w>
王 立
熙 来</w>
点 位</w>
火 光</w>
清明 节</w>
浦 江</w>
测 绘</w>
正 文</w>
桑切 斯</w>
树 斌</w>
标 本</w>
来 信</w>
曲 线</w>
早 教</w>
旗 号</w>
据 点</w>
抢救 室</w>
抚 慰</w>
抗 体</w>
手 足
忏 悔</w>
德 林</w>
张 高
床 单</w>
山 里</w>
密密 麻麻</w>
宝 钢</w>
宝 强</w>
姆 ·
奥 尔
套 牌</w>
天 亮</w>
大 拇指</w>
多 夫</w>
外 壳</w>
埃 斯
名 副
名副 其实</w>
合 部</w>
史 某</w>
受 挫</w>
发 病
卡 罗
剖腹 产</w>
剔 除</w>
刘 彬彬</w>
刘 军</w>
击 落</w>
公 检
修 理
保 税</w>
佩 服</w>
你 好</w>
任 某</w>
代理 商</w>
代 谢</w>
互 补</w>
中 铁
中 粮</w>
东南 网</w>
下 周一</w>
上 周末</w>
or t
l u
V O
LE D</w>
9 级</w>
2. 2</w>
2 比0</w>
青 铜
长 虹</w>
里 奇</w>
配 型</w>
送 别</w>
还 价</w>
辛 辛
躲 入</w>
跌 倒</w>
越 秀区</w>
貌 似</w>
谷春 立</w>
说 了算</w>
规 章
规章 制度</w>
行贿 人</w>
蛋白 质</w>
菏 泽
英 生</w>
自 有</w>
胡 军</w>
罗马 尼亚</w>
缝 合</w>
经 由</w>
第 45</w>
第 33</w>
离 岸</w>
礼 仪</w>
田 间</w>
生育 率</w>
理 睬</w>
珍 珠
火 情</w>
激 进</w>
游戏 机</w>
淤 泥</w>
波 音
汽 车
汶 川</w>
江 山</w>
汉 密
水 体</w>
欢 喜</w>
桑 托
李 荣
斯 里
敬 请</w>
敬 业</w>
支 票</w>
摩 根</w>
搅 拌
推 翻</w>
抵 押
抗 旱</w>
扎 堆</w>
手 机
心 血管</w>
弗 洛
引 以为
店 镇</w>
庐 山</w>
广元 市</w>
年 过节</w>
尸 案</w>
对 口</w>
安全 员</w>
姗 姗</w>
商洛 市</w>
哈萨 克斯坦</w>
合 一</w>
参 谋</w>
半 路</w>
削 弱</w>
利亚 斯</w>
分 文</w>
养 生
免 疫
二 氧化
不 尽</w>
P ro
4 5万</w>
4 3%</w>
1. 6万</w>
1- 6</w>
雷 锋</w>
陪 酒</w>
附 件</w>
退 学</w>
跌 停</w>
说 实话</w>
该 报</w>
言 辞</w>
西 山</w>
西 城</w>
襄 阳市</w>
虽 说</w>
菲 菲</w>
艾 峥</w>
舰 船</w>
缓 冲</w>
端 午</w>
离 谱</w>
离 婚
示 警</w>
着 陆
王 强</w>
王 华</w>
王 丽
玉 溪</w>
河 君</w>
死 人</w>
橡 胶</w>
楼 梯
村 长</w>
春 明</w>
昏 迷
时 而</w>
旅 店</w>
摩 根
推 脱</w>
择 机</w>
拍卖 行</w>
手 提包</w>
怀 抱</w>
徐 某
庆 阳</w>
宝 山</w>
头 角</w>
埋 葬</w>
国 庆
呼格 案</w>
后 退</w>
古斯 曼</w>
古 镇</w>
变 质</w>
参 议院</w>
卡 纳
切 赫</w>
冤 枉</w>
免 税</w>
充电 宝</w>
以 东</w>
仓 位</w>
亲 近</w>
产 值</w>
了 事</w>
书 店</w>
丽 霞</w>
中 型</w>
中 县</w>
专 机</w>
不 锈
下 肢</w>
万妙 然</w>
F l
29 -</w>
2. 5%</w>
1 分</w>
028 -8
0. 1%</w>
０ 年</w>
鱼 类</w>
马库 斯</w>
页 岩
雪 上加
陈 传
阿力 木
阿 圭
防卫 省</w>
长 长
锅 炉</w>
酸 奶</w>
配 售</w>
郑 智</w>
逢 年过节</w>
速 率</w>
逗 留</w>
迪 尼奥</w>
运输 机</w>
运 价</w>
赛 车</w>
赌 气</w>
资料 图</w>
豆 芽</w>
评 判</w>
腰 包</w>
联席 会议</w>
终 生</w>
纠 纷
精 简</w>
第 55</w>
第 39</w>
立 方</w>
窃 听</w>
稀 少</w>
福 清市</w>
示范 区</w>
田 源</w>
特 维斯</w>
漂 流</w>
游击 队</w>
渡 口</w>
流 水
池 县</w>
每 逢</w>
林 地</w>
李小 琳</w>
教 职工</w>
插 队</w>
拍卖 会</w>
心 声</w>
心 动</w>
彩 色</w>
庄 园</w>
并 入</w>
崇 拜</w>
岭 镇</w>
封 顶</w>
寒 冷</w>
家 产</w>
官 邸</w>
安 阳市</w>
威 慑</w>
妹 子</w>
失 眠</w>
处 处</w>
墓 室</w>
坡 区</w>
哭 喊</w>
台 网</w>
反 潜</w>
原 型</w>
南 大</w>
单 节</w>
区 域性</w>
勇 于</w>
副 科级</w>
剥 离</w>
创 造
出 价</w>
农 林</w>
全 日
低 空</w>
亳 州</w>
了 结</w>
丹 阳</w>
中 雨</w>
中 国家</w>
不 正
w if
a t</w>
X box</w>
T C
6 85</w>
4 6%</w>
2 1%</w>
195 4年</w>
13 8
12 8</w>
鸡 场</w>
高 息</w>
驻 地</w>
饥 饿</w>
雪上加 霜</w>
降 准</w>
陈景 云</w>
问 道</w>
配 图</w>
远 洋</w>
近 角</w>
载 机</w>
跟 不上</w>
超 额</w>
起 落</w>
谋 生</w>
词 汇</w>
袁 心玥</w>
蝉 联</w>
董 明珠</w>
获 准</w>
英 权</w>
胡 润</w>
网 恋</w>
维 保</w>
统 计
纳 瓦斯</w>
精 度</w>
第三 者</w>
碾 轧</w>
真 人</w>
看 台</w>
相 当
相当 于</w>
白 发</w>
生 动</w>
班 人</w>
玫 瑰</w>
猎 枪</w>
特 种
演 示</w>
海 岸线</w>
法 警</w>
沸 沸
沸沸 扬扬</w>
汉密 尔顿</w>
汉 超</w>
武 威市</w>
武 威</w>
梅 州市</w>
李 河君</w>
李 安
机 舱</w>
有色 金属</w>
有 余</w>
更 何况</w>
斜 传</w>
撤 退</w>
搞 定</w>
推 介</w>
损 失
拉 齐奥</w>
拉 ·
抽 水</w>
打 消</w>
当 官</w>
尹相 杰</w>
小 薇</w>
失 实</w>
大同 市</w>
大 佬</w>
国 产
和 田</w>
吉隆 坡</w>
右 上角</w>
变 现</w>
变 换</w>
取 名</w>
发 车</w>
单 个</w>
十 一
利 拉德</w>
分 担</w>
分 发</w>
出 名</w>
养 猪场</w>
信 徒</w>
传 谣</w>
伊 琍</w>
五 常
为 数
东 亚
不在 少数</w>
上饶 市</w>
万 众</w>
g z
g ov
S -
PP P</w>
L in
A r
3 1%</w>
14 年</w>
11 7</w>
11 7.
11 6.
0 2月</w>
黄 光
骑 士队</w>
马 龙</w>
马 尼
饼 干</w>
风 口
韦 杰夫</w>
青 龙</w>
陆 上</w>
阵 脚</w>
阳 江</w>
阮 某</w>
闪 电</w>
重 任</w>
里 头</w>
释 疑</w>
郭 永
邓 舸</w>
运输 厅</w>
运 钞
过 日子</w>
跟 前</w>
购 得</w>
茨 基</w>
背 负</w>
编 码</w>
纪念 碑</w>
纪 工委</w>
篮 协</w>
第 87</w>
知 识
相 关
瑜 伽</w>
特 权</w>
滨 区</w>
港 澳
海 空</w>
浦 区</w>
流 下</w>
活 性</w>
泰 安</w>
桃 花</w>
李 树
本 组</w>
服 毒</w>
有 色</w>
景 涛</w>
星 探</w>
无 一
敲 响</w>
攻 略</w>
摸 索</w>
振 华</w>
拍摄 者</w>
拆 解</w>
抹 黑</w>
抢 购</w>
批 文</w>
德 隆</w>
微信 群</w>
微 生物</w>
彩 民</w>
巴 布
巨 资</w>
峡 谷</w>
小 杜</w>
小 宁</w>
客 栈</w>
实 实
实实 在
实实在 在</w>
妊 娠</w>
外 星人</w>
国 共</w>
喝 茶</w>
喀 什</w>
吴 镇宇</w>
吴 亦凡</w>
向 往</w>
发 型</w>
功 课</w>
刘 明
刑事 犯罪</w>
六道 河</w>
八 卦</w>
保 全</w>
临 界点</w>
丛 林</w>
不成 声</w>
七 十</w>
t o
a y
98. 8</w>
4 5亿</w>
196 9年</w>
195 9年</w>
18 0
17 亿</w>
14 亿</w>
11 5.
- 6</w>
２０ 日</w>
２ ．
黄 国
香 山</w>
领 军</w>
顺 便</w>
雷 州</w>
陆 咏</w>
那 场</w>
这 话</w>
跑 路</w>
裁 定书</w>
落 差</w>
胃 口</w>
老 式</w>
网 络
约 束
约 旦</w>
管理 方</w>
眉 山市</w>
电 机</w>
独 资</w>
特 殊
特 勤</w>
爱 民</w>
热 恋</w>
漆 黑</w>
满 满
涉 黄</w>
每 张</w>
梅德 韦杰夫</w>
杯 子</w>
有 线
有 机
明 细</w>
支持 率</w>
援 手</w>
控 诉</w>
指 点</w>
挂 断</w>
拘留 所</w>
承包 商</w>
托 尼</w>
戏 剧</w>
张二 江</w>
张 辉</w>
张 晋</w>
布 兰
客 气</w>
增 德</w>
基 点</w>
坠 机</w>
地震 局</w>
善 学</w>
商 机</w>
哲 科</w>
周 玉
古蔺 县</w>
取 款机</w>
卷 烟</w>
加 密</w>
军 费</w>
克 利
充 斥</w>
催 生</w>
低 温</w>
价 款</w>
交 行</w>
丹 麦</w>
不可 避免</w>
不 去</w>
D a
A P</w>
5 2.
27 亿</w>
2014-0 7
食 道</w>
食 指</w>
飞 身</w>
领 养</w>
雷 军</w>
难 忘</w>
金 秀
郭 正
避 孕
适 房</w>
迁 入</w>
警 局</w>
触 碰</w>
西 门</w>
蒋 洁
苍 白</w>
经 开区</w>
细 分</w>
第 29</w>
空 难</w>
税 制</w>
秦 某</w>
白 衣</w>
白 石</w>
疯 子</w>
生 意
环 绕</w>
爆 胎</w>
炫 富</w>
浙 大</w>
江 面</w>
永 州市</w>
比 尔</w>
欣 欣</w>
欠 佳</w>
横 传</w>
株洲 市</w>
新 星</w>
斯 克
教科 书</w>
护 理
投资 额</w>
扶 手</w>
总 支</w>
张琳 芃</w>
张学 良</w>
带 回</w>
帖 文</w>
师 德</w>
岛 内</w>
就 职</w>
小 田</w>
官 方
安全 岛</w>
婚纱 照</w>
大 屯
多 样</w>
备 降</w>
圆 圆</w>
国 情</w>
园 内</w>
喷 洒</w>
吸 烟
各 县</w>
叹 息</w>
反 悔</w>
单 间</w>
半 径</w>
化 肥</w>
励 志</w>
利 器</w>
分 球</w>
分 期</w>
出 错</w>
出 资
准备 金率</w>
冷 水
内 设</w>
公 式</w>
停 板</w>
候 车</w>
信号 灯</w>
价 还价</w>
交 警队</w>
交 口</w>
义 工</w>
三四 十</w>
一 日
Y S</w>
Tech Web</w>
L O
6 6.
196 1年</w>
1- 5</w>
1 100</w>
00 0
１ ８日</w>
高 职</w>
首 创</w>
题 组</w>
零 星</w>
陆 战队</w>
铁 西区</w>
铁 皮</w>
里 ·
连 锁
运 势</w>
车 程</w>
路 透</w>
起 见</w>
赶 集</w>
赞 赏</w>
质 监</w>
语 权</w>
话 语权</w>
许 诺</w>
警 钟</w>
血 缘</w>
节 目组</w>
舍 友</w>
自 学</w>
肯 德基</w>
肉 身</w>
绵 阳市</w>
经 适房</w>
第 四
福 田</w>
示 意图</w>
百 货
百 合</w>
瓦 尔</w>
琢 磨</w>
现 货</w>
特 雷
牵 引</w>
测 评</w>
测 定</w>
波 罗
河 乡</w>
武 大</w>
梁振 英</w>
桌 椅</w>
村 道</w>
本 费</w>
本 村</w>
未 定</w>
星 际</w>
日 报社</w>
日 成</w>
方 圆</w>
排 水量</w>
持 久</w>
招 录</w>
打 假</w>
房 地
忻 州市</w>
张 平</w>
弄 虚
年 会</w>
尖 叫</w>
容 器</w>
奥 里
天 坛</w>
大 修</w>
噪 声</w>
吉 诺
合法 性</w>
古 人</w>
发展 中国家</w>
印刷 厂</w>
协 管员</w>
医 大</w>
前 门</w>
农 妇</w>
倡 廉</w>
侵 蚀</w>
优 静</w>
人 身
云 计算</w>
乞 丐</w>
主 官</w>
丧 事</w>
ati on</w>
TF BO
TFBO YS</w>
H I
43 分</w>
2 200</w>
194 4年</w>
100. 19
1. 0</w>
颗 粒
顺 畅</w>
集 中
陪 护</w>
陈 思</w>
阿联 酋</w>
阿 德
阳 路</w>
门 锁</w>
长长 的</w>
金 正
配 额</w>
还 贷</w>
运钞 车</w>
轩 然大
车 手</w>
赞助 商</w>
证 词</w>
讨 价还价</w>
言 之</w>
蒋洁 敏</w>
荫 国</w>
自然 灾害</w>
自 负</w>
脱 光</w>
老 父亲</w>
维 克
纠纷 案</w>
素 养</w>
系 列
第 65</w>
空 洞</w>
秘 鲁</w>
禁 用</w>
神 木县</w>
祈 福</w>
白 白</w>
病 症</w>
留尼 汪
申 龙</w>
甘 心</w>
牡丹 江</w>
焦 作</w>
焦 作
火 苗</w>
漏 电</w>
江 宁</w>
求 医</w>
毒 驾</w>
母 校</w>
殖 民</w>
橄 榄
杨 元
李 俊</w>
曾 某</w>
晚 年</w>
旋 转</w>
新 品</w>
文 体</w>
政治 委员</w>
指 头</w>
拥 护</w>
抓 拍</w>
手 游</w>
惊 呼</w>
悲 鸿</w>
快 餐店</w>
心 急
心 切</w>
张 靓颖</w>
弄虚 作假</w>
年 期</w>
小 屋</w>
宽 度</w>
宰 杀</w>
宋 代</w>
奥 马尔</w>
大 成</w>
多特 蒙德</w>
塔 尔
国 泰
商 界</w>
吴 英
名 誉
反 问</w>
压 抑</w>
半 成品</w>
加 装</w>
功 能
划 算</w>
刀 切</w>
函 授</w>
凯 尔</w>
冒 雨</w>
俞 某</w>
供 职</w>
会 员
休 学</w>
亲 戚
事 者</w>
乡 里</w>
严 明</w>
下 定
一 头</w>
u p
b it</w>
9 点半</w>
4- 0</w>
18 00万</w>
14 4</w>
13 亿</w>
100. 4</w>
２０１ １年</w>
２ 月</w>
１ ８
１ ４日</w>
黎 源</w>
马 克</w>
风 筝</w>
鞍 山市</w>
面 条</w>
问 政</w>
长 年</w>
锋 线</w>
选 用</w>
违 建</w>
轩然大 波</w>
财 经
规范 化</w>
西双版 纳</w>
被 执行人</w>
袜 子</w>
蜡 像
花 都</w>
番 禺
留 下来</w>
界 线</w>
王 室</w>
王 俊
独 子</w>
特 有</w>
火 药
滨 江</w>
源 地</w>
港 镇</w>
流 露</w>
治 乐</w>
沉 浸</w>
水 镇</w>
水 口</w>
死 伤</w>
横 跨</w>
桑 普
林 玉海</w>
林 书豪</w>
杯 赛</w>
曲 折</w>
昆 凌</w>
无 异</w>
施 暴
效 能</w>
摄 入</w>
感染 者</w>
感 人</w>
惠 东县</w>
惊 恐</w>
张 世
建 委</w>
延 寿县</w>
度 霾</w>
年 年</w>
已 然</w>
崩 塌</w>
小 龙虾</w>
小 胡</w>
小 唐</w>
孙 楠</w>
孔 德军</w>
婚姻 法</w>
妥 当</w>
奥林匹 克</w>
夭 折</w>
大河 网</w>
大 笔</w>
墙 角</w>
城 郊</w>
国 平</w>
回 放</w>
司法 厅</w>
叙 述</w>
南 安
劳 务
制 假</w>
刘 洋</w>
刘 姝
出 口
党 章</w>
储 量</w>
保障 部</w>
何 处</w>
优 雅</w>
以 西</w>
人民 路</w>
亨 德森</w>
乐 意</w>
临 湘</w>
严重 性</w>
丛 生</w>
in ance</w>
ic e</w>
P e
A m
7 000万</w>
3 1-</w>
2015 -
200 8</w>
194 9年</w>
１ ５</w>
龙 湖</w>
鲁 迅</w>
骨 架</w>
马 布
饮 水机</w>
顺 县</w>
面 容</w>
静 雯</w>
青春 期</w>
集 市</w>
长 途
重 金</w>
郫 县</w>
避 险</w>
遇 险</w>
赛 道</w>
货 源</w>
课 题组</w>
误 食</w>
该 机</w>
试 用</w>
葫芦 岛</w>
营 利</w>
苦 恼</w>
自 焚</w>
自 残</w>
联 队</w>
美容 院</w>
罗 荫国</w>
罗 君
经 合</w>
精 子</w>
穆 雷</w>
监 事</w>
百 伦</w>
留尼汪 岛</w>
甸 县</w>
狩 猎</w>
爵 斌</w>
灰 尘</w>
漏 水</w>
淮 河</w>
淮 安市</w>
泣 不成声</w>
沿 用</w>
沙 尘
每 亩</w>
梁 开武</w>
来 历</w>
李孟 军</w>
朱 冬生</w>
朝 中社</w>
斯 文</w>
推 卸</w>
授 意</w>
挤 满</w>
抗 癌</w>
扔 掉</w>
手 榴弹</w>
恶 性
总 政治部</w>
徐 刚</w>
床 头</w>
年 终</w>
峰 值</w>
山 口</w>
尽 头</w>
威斯 布鲁克</w>
失 常</w>
大 便</w>
士 气</w>
塘 村</w>
哈 维</w>
周 爵斌</w>
启 程</w>
吐鲁 番</w>
反腐 倡廉</w>
历 年</w>
印 花
单 杆</w>
华 语</w>
前 去</w>
刷 卡</w>
凶 杀案</w>
全日 制</w>
克 罗斯</w>
假 象</w>
侵 略
伦 蒂诺</w>
伊万 诺维奇</w>
价格 战</w>
产业 化</w>
二 中院</w>
买 断</w>
之 风</w>
不正 之风</w>
下 葬</w>
v s</w>
e i
7 9.
4 1.
3 80</w>
3 7%</w>
28 亿</w>
201 3-
2. 1</w>
15 5</w>
11 6</w>
.. ..</w>
２ ２日</w>
１ ７日</w>
龙 江</w>
鼓 舞</w>
黑 白</w>
黄石 市</w>
黄光 裕</w>
雅 照</w>
铁 丝网</w>
释延 鲁</w>
郭正 钢</w>
邻 村</w>
追 讨</w>
连 串</w>
输 出</w>
货 架</w>
计 费</w>
警察 局</w>
规 章</w>
见 面
血 糖</w>
著 称</w>
节 后</w>
胸 前</w>
肉 眼</w>
老 冯</w>
网 银</w>
缉 拿</w>
经 办</w>
绍 兴市</w>
红 星</w>
第 90</w>
秀 英</w>
研究生 班</w>
砍 刀</w>
督 查组</w>
省 钱</w>
盼 望</w>
目 测</w>
登记 处</w>
王 赟</w>
猫 狗</w>
特 曼</w>
烧烤 店</w>
溃 烂</w>
游 轮</w>
渔 场</w>
浪 尖</w>
泛 滥</w>
油 条</w>
沮 丧</w>
毕业 证</w>
段 落</w>
武 县</w>
桥 墩</w>
核 桃</w>
机 场
星 巴克</w>
攻 破</w>
搁 置</w>
接 单</w>
悔 改</w>
待 命</w>
张 柏芝</w>
弟 媳</w>
宽 容</w>
始 发</w>
妇 人</w>
天 色</w>
墓 穴</w>
地 价</w>
四 面</w>
吴 起
台 商</w>
叫 停</w>
发 飙</w>
原 告
包 抄</w>
包 头市</w>
包 包</w>
前 排</w>
制 度
出 人
凌 乱</w>
冲 洗</w>
克 罗
克 制</w>
供 暖</w>
人 马</w>
书 佣</w>
专 属</w>
不 觉</w>
下定 决心</w>
一 连</w>
re s
d e</w>
d b
P E</w>
H O</w>
7 0亿</w>
6 9.
3. 5%</w>
197 7年</w>
193 7年</w>
0- 2</w>
风 口</w>
面 馆</w>
零 售价</w>
隐 匿</w>
钟 南山</w>
邓 州</w>
道 歉
通 关</w>
逆 向</w>
迷 路</w>
违约 金</w>
运 城市</w>
讷 河</w>
解 密</w>
褐 色</w>
袭 警</w>
补 缴</w>
虎 山</w>
美 景</w>
美 味</w>
网 址</w>
编 写</w>
纳 闷</w>
纤 维</w>
突 变</w>
穆 尔
科 幻</w>
神 话</w>
益 阳市</w>
甲 级</w>
生 证</w>
生 母</w>
王 老
治 军</w>
正 月
正 常
植 物园</w>
桃 花
杨 海</w>
李 斌</w>
服务 商</w>
有 加</w>
替 补
数 十亿</w>
抗 拒</w>
投 毒</w>
执 掌</w>
才 华</w>
手 镯</w>
戈 麦斯</w>
情 怀</w>
徐 若
年 中</w>
市 中区</w>
巧 妙</w>
巅 峰</w>
居 家</w>
寨 村</w>
寄 托</w>
审判 庭</w>
实 处</w>
安德 烈</w>
安 庆市</w>
字 母</w>
失 业率</w>
大 体</w>
外 包</w>
墨 尔
埃里 克森</w>
坪 镇</w>
回 流</w>
喜 庆</w>
名誉 权</w>
参 数</w>
卡 瓦
卡 洛斯</w>
医 患</w>
北 良</w>
加 勒
冠 军
修 车</w>
保护 伞</w>
供 电
不 容</w>
不 妙</w>
R A
6 40</w>
2. 9
197 1年</w>
1. 2亿</w>
１ ６日</w>
高 喊</w>
首 钢</w>
领 海</w>
预 见</w>
面 目</w>
陈文 珍</w>
陈传 钧</w>
阿隆 索</w>
阿 勒
钻 井</w>
里 斯
鄞 州</w>
鄂尔多 斯市</w>
运 载</w>
运 载
费 曼</w>
贯 通</w>
质 证</w>
血 样</w>
肥 胖</w>
肝 癌</w>
群 租房</w>
粽 子</w>
管理 区</w>
第 68</w>
科 尔</w>
禁 毒
盟 国</w>
白 菜</w>
留 院</w>
王浩 斌</w>
王天 圣</w>
牛 队</w>
热 水
烧烤 摊</w>
滨 州</w>
湍 急</w>
港 铁</w>
港 通</w>
涂 鸦</w>
海 东</w>
案 值</w>
李 量</w>
普 洱</w>
料 到</w>
收 视</w>
操 大办</w>
推 诿</w>
损失 费</w>
捉 妖记</w>
挂 靠</w>
拉 拉
抚 州</w>
所 思</w>
户口 本</w>
徐若 瑄</w>
开 门
建 制</w>
常 青</w>
崇 禧</w>
导火 索</w>
导 性</w>
安 放</w>
奇 酷</w>
夷 所思</w>
大 操大办</w>
外 甥
复 燃</w>
城市 化</w>
城 路</w>
坚 实</w>
唯 有</w>
变 性</w>
匪 夷所思</w>
匈 牙
勋 章</w>
劳 累</w>
创 出</w>
刘姝 威</w>
刘 丽</w>
出 品</w>
冲 天</w>
冯 绍
军 车</w>
兰 兰</w>
公 示
八 九
先 锋</w>
停 球</w>
修 课</w>
佐 证</w>
产 期</w>
中小 板指</w>
中 到
三 里
it y</w>
7 7.
7 3
11 年</w>
0. 6
- 5</w>
龙岩 市</w>
雷 击</w>
限 牌</w>
附 中</w>
阶 级</w>
长 级</w>
金 日成</w>
都 江
进 账</w>
转 悠</w>
踩 踏</w>
跨 度</w>
贝 克
误 工费</w>
误 区</w>
解 书</w>
西 奇</w>
芙 蓉</w>
自 卫</w>
脏 器</w>
耳 机</w>
粉碎 性</w>
管理 站</w>
第 51</w>
竞 价</w>
窟 窿</w>
稳 中
福 田
祉 部</w>
礼 服</w>
眼 见</w>
相 见</w>
盗 贼</w>
监测 点</w>
皇 宫</w>
甲 方</w>
瓦 罗</w>
球 童</w>
王永 珀</w>
煎 熬</w>
洞 穴</w>
残 联</w>
格 尔</w>
松 原</w>
有所 不同</w>
晓 东</w>
星 运</w>
无 助</w>
撒 谎</w>
振 宇</w>
挂 失</w>
拒 捕</w>
拉 迪
心 想</w>
心 头</w>
心 事</w>
强奸 案</w>
建设 局</w>
店 长</w>
并 非
对 称</w>
寓 意</w>
始 皇</w>
大 西
大 神</w>
城 堡</w>
埃 利斯</w>
垃圾 堆</w>
场 边</w>
唐 朝</w>
周 某
吴 某
同 济</w>
吃 亏</w>
叫 醒</w>
口 村</w>
原 籍</w>
厚 街</w>
历 来</w>
印花 税</w>
南 平</w>
单 元
十 三五</w>
刘 文
出 发点</w>
凯 里</w>
凯 特</w>
内 政
兴 华</w>
公检 法</w>
公 信
党 派</w>
光 纤</w>
保 质
仿 制</w>
亲 身</w>
五常 市</w>
乙 方</w>
久 性</w>
东 门</w>
专 栏</w>
不 利于</w>
上班 族</w>
上 海
三 公</w>
一 条
z h
y p
SU V</w>
8 5.
49 亿</w>
15 000</w>
２０１ ５年</w>
鸿 祎</w>
验 证
驻 守</w>
驶 证</w>
领 空</w>
雨 伞</w>
铁 矿</w>
配 角</w>
通 信
迷 彩</w>
返 校</w>
近 海</w>
运动 鞋</w>
赤 字</w>
负 伤</w>
记 不清</w>
要 不</w>
致 辞</w>
考 察
绑 定</w>
第 70</w>
离 境</w>
礼 貌</w>
短 板</w>
监 事
电 瓶</w>
瓷 砖</w>
狙 击
犯 案</w>
牢 记</w>
爱 爱</w>
点 击
潜 伏</w>
深 远</w>
消 瘦</w>
法 工委</w>
沙 尘</w>
汉 阳</w>
检疫 局</w>
林 静</w>
枕 头</w>
李 忠</w>
机 智</w>
春 雷</w>
时 空</w>
无 条件</w>
招待 所</w>
抗 争</w>
截 屏</w>
总 统
彤 彤</w>
建 功</w>
应 酬</w>
年 华</w>
平 淡</w>
山 沟</w>
小 徐</w>
宝 华</w>
姚 木根</w>
奖 赛</w>
天 体</w>
大 奖赛</w>
大 出血</w>
多 米
复 活</w>
复 杂
力 军</w>
刘 海</w>
刘 建军</w>
准 生证</w>
冲 刺</w>
冰 冻</w>
写 字</w>
内 置</w>
内 存</w>
其 一</w>
共 建</w>
六 安市</w>
免 责</w>
体 性</w>
伟 思</w>
以 期</w>
临 湘
中 储粮</w>
两 头</w>
一 无
g c
P K</w>
8 3.
4-3- 3</w>
4 9%</w>
4 1%</w>
201 7</w>
12 年</w>
- 1</w>
１ ５
黄 小
高 举</w>
骨 髓
驾驶 舱</w>
风口 浪尖</w>
风 头</w>
静 静
阿 丽</w>
闲 聊</w>
销 赃</w>
超级 杯</w>
赔偿 款</w>
资 阳市</w>
质 子</w>
诬 告</w>
讲 机</w>
解放 网</w>
西 北风</w>
衡 水市</w>
街 口</w>
行 驶证</w>
荆 门</w>
花 卉</w>
翻 墙</w>
罗君 儿</w>
罗 夫</w>
综合 治理</w>
精 致</w>
立 群</w>
福 祉部</w>
禅 城区</w>
破 烂</w>
瓜 农</w>
琪 琪</w>
王 金
王 希</w>
特 产</w>
火 焰</w>
激 增</w>
活 活</w>
洛 蒂</w>
永 县</w>
正 门</w>
杨 光
星 星</w>
明 晰</w>
明 报</w>
旗 舰
文 图</w>
推 移</w>
指导 价</w>
招 股</w>
抢 占</w>
手 软</w>
房 款</w>
愈 烈</w>
恩 怨</w>
性 骚扰</w>
张 华</w>
平 阳</w>
师 资</w>
工作 量</w>
山 水</w>
宣传 科</w>
妹 夫</w>
大 会堂</w>
地产 商</w>
在 乎</w>
四 平</w>
商业 化</w>
售 楼
哈 德森</w>
周 挺</w>
周 密</w>
吕 征</w>
吃 力</w>
口 感</w>
单 增德</w>
医 疗
办公 桌</w>
割 断</w>
割 喉</w>
剧 场</w>
利 奥
军 营</w>
兰 队</w>
全 党</w>
保 监会</w>
住 宿
会议 费</w>
亚 尔</w>
丧 命</w>
不知 所
i ph
T V
Mi cha
C om
96 2007</w>
4 2%</w>
3. 2</w>
23 亿</w>
100 ml</w>
021- 962007</w>
１９ 日</w>
高 志华</w>
顺 风
静 脉</w>
长 乐</w>
遴 选</w>
运载 火箭</w>
辞 职
路 线图</w>
货 船</w>
诺维 茨基</w>
警 民</w>
詹 妮
西 边</w>
补 课</w>
药 价</w>
胡 志
维 拉</w>
绝 非</w>
终 究</w>
约 什</w>
红 红
第 37</w>
禁 烟</w>
祖 英</w>
石 嘴
盛 行</w>
监 理</w>
王 秋
王 祖
牧 民</w>
激 化</w>
潍 坊市</w>
湖 路</w>
海 河</w>
泡 沫
河 西</w>
河 源市</w>
沧 州市</w>
民 进</w>
毫不 犹豫</w>
比 达尔</w>
毒 资</w>
毅 腾</w>
格 格</w>
李 健</w>
有线 电视</w>
曲 靖
春 城</w>
既 往</w>
新 体</w>
敲 打</w>
放 水</w>
拉 美</w>
快 点</w>
必 经</w>
弯 曲</w>
应 邀</w>
序 幕</w>
年 头</w>
平 均值</w>
巴 格
峡 市</w>
安 切
安切 洛蒂</w>
字 迹</w>
女 篮</w>
塘 沽</w>
国 网</w>
吵 闹</w>
吴起 县</w>
名 次</w>
可 知</w>
匈牙 利</w>
劲 旅</w>
劝 告</w>
冲 绳</w>
伦 理</w>
仁 川</w>
人 造</w>
人 世</w>
书记 处</w>
乎 乎</w>
临湘 市</w>
世 家</w>
不锈 钢</w>
一 代
ap er
_ _
8 8.
6 5万</w>
3 /
24 00</w>
麦 提</w>
高压 线</w>
骨 骼</w>
顾 及</w>
顺 忠</w>
顶 住</w>
页岩 气</w>
震 中</w>
陷 害</w>
问 询</w>
镇 江市</w>
金 量</w>
金 牛
金 州</w>
采 摘</w>
酗 酒</w>
轻 轨</w>
转 送</w>
转 业</w>
赔 钱</w>
血 肉</w>
经 受</w>
紧 跟</w>
素 有</w>
第 32</w>
盗 掘</w>
监督 所</w>
疗 效</w>
理工 学院</w>
玛 特</w>
物 业
照 相</w>
烈 日</w>
满 面</w>
淡 薄</w>
波音 7
波 特</w>
气 枪</w>
桥 头</w>
桑普 多利亚</w>
李雪 莹</w>
本 息</w>
末 端</w>
星 光</w>
旺 盛</w>
斯特 罗</w>
救 声</w>
效 仿</w>
撕 扯</w>
提 审</w>
授 课</w>
抱 歉</w>
投 身</w>
戒毒 所</w>
帕 特
巴 特尔</w>
已 晚</w>
巨 基</w>
巡 回</w>
对 准</w>
官方 微博</w>
子 钱</w>
嫁 妆</w>
大 四</w>
地 摊</w>
国 贸</w>
商 圈</w>
听 听</w>
同 仁</w>
吃 喝
叶 青</w>
发 威</w>
卷 烟厂</w>
南 沙
华 春莹</w>
医 托</w>
包 袱</w>
助 阵</w>
刘志 勇</w>
分 头</w>
兵 器</w>
公信 力</w>
何 治乐</w>
人 性化</w>
亲 节</w>
为时 已晚</w>
东亚 杯</w>
三 元</w>
u c
o c
j gz
al l</w>
S k
25 年</w>
199 .
10 0-
. gov
１ ２</w>
龙 虎
高 渝</w>
马 塞
隔离 带</w>
陈 川
镇 定</w>
金 银</w>
采 矿</w>
酒 厂</w>
路 牌</w>
越 是</w>
证 照</w>
西 门
衣 室</w>
葡 萄</w>
范 方</w>
英 才</w>
航 员</w>
致 敬</w>
肠 道</w>
缺 点</w>
续 航</w>
统一 战线</w>
纸 质</w>
粉 碎</w>
突 尼斯</w>
移 居</w>
科 夫</w>
研究 部</w>
直 观</w>
盗 走</w>
白 银
珠宝 店</w>
牌 车</w>
焦点 战</w>
潘 攀</w>
游 人</w>
深 表</w>
浴 室</w>
汕 头市</w>
比 利</w>
毒 手</w>
某 地</w>
束 手
李 崇禧</w>
更 衣室</w>
无 不</w>
施 泰
整 套</w>
攻 门</w>
拳 脚</w>
技术 员</w>
托 运</w>
房地 产业</w>
战 犯</w>
恰 巧</w>
急 促</w>
怒 火</w>
怒 射</w>
帕 德</w>
巴 列
小 东</w>
对 讲机</w>
对 立</w>
客 船</w>
实 惠</w>
安 防</w>
宁 可</w>
孤 儿
大 麻</w>
外 滩</w>
城 人</w>
唤 醒</w>
和 县</w>
周 旋</w>
卖 场</w>
华 商报</w>
十 堰市</w>
匣 子</w>
包 办</w>
劳 教</w>
刘嘉 玲</w>
刘 益
况 且</w>
公益 金</w>
全 职</w>
光 头</w>
充 裕</w>
倒 入</w>
俱 全</w>
俊 闵</w>
住 建</w>
人 脉</w>
交 大</w>
云 山</w>
主 城</w>
中 行</w>
个 半</w>
严 某</w>
不 一会儿</w>
万 里</w>
sh eng
il u
On e</w>
58 分</w>
2. 6</w>
194 2年</w>
1. 3%</w>
00 -
0 6月</w>
- 4</w>
２０ ０</w>
麦 田</w>
问 话</w>
鄂 州</w>
邵 阳市</w>
邱 卡</w>
边 县</w>
身 心
起 色</w>
试 探</w>
计 入</w>
触 动</w>
衣 柜</w>
菲 利
莫 拉
腾 出</w>
而 上</w>
维吾 尔
经 贸
约 翰</w>
红 旗
管 辖
第 80</w>
第 41</w>
符 号</w>
突 破口</w>
离婚 率</w>
禁 赛</w>
神 色</w>
监 控
田 玉林</w>
玄 武
独 有
特 长</w>
物 色</w>
港 湾</w>
泰 勒</w>
治 安
江 汉</w>
永 清</w>
永 定
梁 丽霞</w>
柴 油
板 指
李 连
李 玉
李 兆
权 谋私</w>
本 性</w>
时 下</w>
无 独有
文 革</w>
文 博</w>
搜 索
措 辞</w>
拐 杖</w>
投 带</w>
扬 长
执 政党</w>
懊 悔</w>
憔 悴</w>
愈 演
总领 馆</w>
心 酸</w>
强 强</w>
弹 射</w>
开 战</w>
布雷 加斯</w>
巴 洛
左 耳</w>
层 出
层出 不
层出不 穷</w>
少 年
小 到
嫌 弃</w>
媒 体
大手 笔</w>
外甥 女</w>
境 内外</w>
塔 区</w>
国 奥</w>
回 报
周 靖</w>
周 群
台 长</w>
台 词</w>
另 案</w>
受 限</w>
反 应
参 战</w>
卡 人</w>
化 粪池</w>
初 审</w>
内 涝</w>
六 月</w>
六 一</w>
公 务
八 月</w>
克莱 斯勒</w>
修 正</w>
保洁 员</w>
供 货</w>
传 人</w>
以 权谋私</w>
人 意</w>
人 影</w>
二 孩</w>
之 急</w>
中 亚</w>
个 体
东 阳市</w>
不 懈</w>
三 月</w>
xx jgz
xxjgz h</w>
gc xxjgzh</w>
de l</w>
B R
7 2
6 0.
4. 9
4 7%</w>
3 万亿</w>
18 0万</w>
1 300万</w>
鬼 子</w>
高 田</w>
马里 奥</w>
饲养 员</w>
风 声</w>
音 译</w>
面 色</w>
靖 县</w>
青 青</w>
随 之
陈安 众</w>
陆 丰</w>
这 根</w>
转 任</w>
路 局</w>
贴 心</w>
象 网</w>
议 程</w>
订 婚</w>
解 聘</w>
规 劝</w>
融 洽</w>
著 作
菜 单</w>
节 俭</w>
良 性</w>
舅 子</w>
脏 话</w>
背 心</w>
股 吧</w>
聘 任</w>
职业 道德</w>
聂 树斌</w>
而 去</w>
罗 志
红 衣</w>
粮 食
粉 色</w>
管辖 权</w>
第 69</w>
第 43</w>
稀 缺</w>
祖 孙</w>
男 星</w>
由 此
瑞 纺</w>
王 兴
猖 獗</w>
爱 护</w>
爱 国
焊 接</w>
烤 脑
瀑 布</w>
溺 水者</w>
湘 涛</w>
河 沟</w>
河 内</w>
沙尘 暴</w>
汲 取</w>
求 职者</w>
格 勒</w>
李 刚</w>
权 玉顺</w>
木 耳</w>
最 低
暗 藏</w>
春 雨</w>
旅 途</w>
文 斌</w>
推 手</w>
愈演 愈烈</w>
总 指挥</w>
当 班</w>
张 雄</w>
开 播</w>
应 声</w>
希 特勒</w>
尘 埃
小 松</w>
小 朱</w>
富 婆</w>
始 建</w>
大 伟</w>
夜 市</w>
墨 菲</w>
地 雷</w>
在 即</w>
圣 战</w>
善 意</w>
呼格吉 勒</w>
启 发</w>
古 董</w>
卡 号</w>
剑 桥</w>
初 级</w>
公 寓
入 性</w>
假 释</w>
余 下</w>
会 后</w>
代 工</w>
产 房</w>
互 殴</w>
互 助</w>
之 声</w>
中 远</w>
专 心</w>
上 半时</w>
一 连串</w>
一 刀切</w>
q ilu
k g</w>
http:// www.
S I
R O
MI UI</w>
F it
C D
@ 齐鲁网</w>
8 9.
3. 0</w>
2/ 3</w>
2 25</w>
18 年</w>
1. 4万</w>
1. 3万</w>
1 3年</w>
1 100万</w>
龚 某</w>
高玉 伦</w>
首 市</w>
首 付款</w>
预 警
院 落</w>
阿 辉</w>
闸 门</w>
门诊 部</w>
长沙 县</w>
键 盘</w>
铁 岭</w>
酒 泉市</w>
迫 降</w>
过 硬</w>
赢 家</w>
谜 团</w>
观 音
衍 生</w>
行 署</w>
蜡像 馆</w>
落 到
落到 实处</w>
艳 艳</w>
脸 书</w>
联 发科</w>
绰 号</w>
绘 画</w>
等 功</w>
第十 六</w>
立法 权</w>
空 子</w>
种 子
破 除</w>
盗 用</w>
用 户数</w>
瓜 迪
环 线</w>
王 瑞
王 洪
王 妃</w>
牵 动</w>
点 站</w>
淋 巴
波尔 图</w>
沙 河</w>
水 费</w>
母 舰</w>
柯 文
枫 浪</w>
果 树</w>
李 海
李 伟
无独有 偶</w>
斐 然</w>
挑 起</w>
按 揭</w>
折 断</w>
技 校</w>
扫 荡</w>
打 下</w>
房 管</w>
怀 念</w>
张 安
库 房</w>
平 江</w>
平 分</w>
差 额</w>
工 学</w>
居 高
小 笼
富 人</w>
客 流量</w>
实 事
实事 求是</w>
学 仁</w>
失 落</w>
夫 ·
天 网</w>
大 明</w>
大 到
多 余</w>
外 号</w>
外 力</w>
复 性</w>
塔尔 德利</w>
坦 诚</w>
坏 事</w>
商务 车</w>
周群 飞</w>
后 天</w>
吉诺 比利</w>
各 路</w>
另 类</w>
华 区</w>
升 起</w>
十 日</w>
勒 令</w>
军 装</w>
公 元</w>
八 门</w>
僵 硬</w>
倪 某</w>
俱 杯</w>
俞 优静</w>
保 有量</w>
保 户</w>
住院 部</w>
五花 八门</w>
九 龙</w>
临 街</w>
严 正</w>
东南 州</w>
东 风
下 决心</w>
sheng .i
sheng.i qilu
sheng.iqilu .com/</w>
min sheng.iqilu.com/</w>
http:// minsheng.iqilu.com/</w>
en d
e st
Hu b</w>
C ar
8 10</w>
6 .</w>
37 亿</w>
12 3</w>
1 10万</w>
饱 和</w>
风 行</w>
风 云</w>
非 议</w>
靖 童</w>
青 蛙</w>
需 求
陈川 平</w>
阵 子</w>
金 报</w>
野 蛮</w>
郭 采洁</w>
通 报
远 投</w>
赣 州市</w>
资源 厅</w>
贺 某</w>
调 头</w>
评 议</w>
警 示
警 卫队</w>
视 镜</w>
蓄 水</w>
蒿 俊闵</w>
舆 情</w>
腰 椎</w>
耶 夫</w>
老 牌</w>
筹 措</w>
第 67</w>
积 压</w>
租 下</w>
睁 睁</w>
眼 睁睁</w>
理 顺</w>
狡 猾</w>
热 那
灵璧 县</w>
火 花</w>
溪 村</w>
清 水</w>
深 渊</w>
淑 华</w>
沙 子</w>
池 州市</w>
枪 战</w>
杨 锋</w>
明 码</w>
施 某</w>
故 居</w>
控制 权</w>
控 卫</w>
挥 手</w>
手 工</w>
所 为</w>
户 县</w>
截 留</w>
德 布
徐 辉</w>
张伟 平</w>
应 答</w>
庆 良</w>
家属 院</w>
审判 员</w>
宁 人</w>
孙 晓
大到 暴雨</w>
多 头</w>
增 发</w>
垄断 法</w>
国 青</w>
嘉 县</w>
周 董</w>
告 终</w>
吴坤 胜</w>
口 水</w>
卫生 纸</w>
卖 方</w>
单 边</w>
加 盟
前 后
刀 片</w>
兹 曼</w>
兴 路</w>
兰 多夫</w>
八 九</w>
倒 计时</w>
保护 部</w>
保 发</w>
传 播
优 美</w>
份 子</w>
介 意</w>
书 院</w>
乐 山市</w>
为 啥</w>
东北 网</w>
丘 县</w>
世界 级</w>
世 代</w>
上 牌</w>
三 轮</w>
七星 关区</w>
一 如
ep aper
b aby</w>
W il
D 6
C A
8 0亿</w>
38 分</w>
2015-04- 30</w>
2 2亿</w>
18 9
１ １日</w>
马 自
首 府</w>
饺 子</w>
韩 军</w>
随之 而来</w>
长 征</w>
银 联</w>
铁路 网</w>
金融 股</w>
金 器</w>
里 程
郝 伟</w>
车 尾</w>
跳 出</w>
路 障</w>
谭 力</w>
衷 心</w>
蓄 意</w>
花 圈</w>
舜 天
至 今日</w>
自 尽</w>
翻 新</w>
羽毛 球</w>
美 尔</w>
索 马里</w>
第 85</w>
第 50</w>
眼 镜
百 计</w>
癌 细胞</w>
瘦 小</w>
男 足</w>
生 父</w>
甄 别</w>
烧 炭</w>
海 盗</w>
泰 尔</w>
沈 培
沈培 平</w>
水利 工程</w>
比 尼奥</w>
正 月</w>
查 尔
果 汁</w>
林 华</w>
李雪 芮</w>
李 万
本 溪</w>
本 意</w>
曲靖 市</w>
无 关
施暴 者</w>
文 凭</w>
探 亲</w>
抢 先</w>
扩 容</w>
手 球</w>
房 客</w>
戏 法</w>
慧 君</w>
悬 空</w>
恩 青</w>
总 后勤部</w>
怪 异</w>
怀 化市</w>
张 曙光</w>
弄 清</w>
廉 租房</w>
尽 责</w>
小 猪</w>
寒 潮</w>
安 乐
学 前
如 是说</w>
大屯 路</w>
大 鹏</w>
大 笑</w>
外 衣</w>
堕 胎</w>
吸 纳</w>
后 怕</w>
却 说</w>
卧 床</w>
功能 区</w>
功 臣</w>
删 帖</w>
刘家 坤</w>
凭 着</w>
几 内
军 级</w>
冈 市</w>
养 犬</w>
党 建</w>
假 证</w>
伪 劣</w>
传 导</w>
伊 涅
人 脸</w>
二氧化 硫</w>
二 话
久 远</w>
中 老年人</w>
东 边</w>
下 家</w>
七 大</w>
一如 既往</w>
A -</w>
7 6.
37 万</w>
3. 5万</w>
3 30</w>
2 30</w>
2 1万</w>
193 8年</w>
15 4</w>
１０ ０</w>
黄金 周</w>
骚 乱</w>
颗粒 物</w>
预 告</w>
雷 人</w>
雷 亚尔</w>
陕 北</w>
陈 宇</w>
陆 丰市</w>
阿尔 德里奇</w>
铁 道</w>
钱 币</w>
过 时</w>
贴 身</w>
象 牙</w>
诺 夫</w>
请 客</w>
该 剧</w>
视 角</w>
落 空</w>
莲 花
荆 门市</w>
艰 巨</w>
舰 载</w>
聚 集
美 术
罗 梅</w>
罗 杰
绘 制</w>
绕 道</w>
纳 金</w>
精神病 院</w>
签 注</w>
穿 孔</w>
程 序
私 用</w>
硅 谷</w>
破 坏
着 想</w>
盘 锦</w>
皮 肤
疲 弱</w>
王 朝</w>
王 军</w>
特 许</w>
牙 膏</w>
片 中</w>
爱 礁</w>
焦 某</w>
热 力</w>
潮 州</w>
流 氓</w>
洪 涝</w>
沙 头角</w>
永 久性</w>
欧 联
欧 某</w>
杨 华</w>
李 师傅</w>
末 节</w>
期 指</w>
晨 练</w>
明 文
无 理</w>
文 华</w>
排 列</w>
抚 养
打 非</w>
手术 台</w>
户籍 地</w>
戏 台</w>
戏 剧
慢 性病</w>
总统 府</w>
怀 特</w>
得 力</w>
废 气</w>
幸福 感</w>
带 病</w>
家庭 教育</w>
宝 座</w>
外 就医</w>
埃斯 库
四 合
唯 独</w>
呼 唤</w>
名 词</w>
各 市</w>
变 异</w>
县 区</w>
化 腾</w>
包 揽</w>
动 能</w>
刘 国
刑 侦
分 之
决 定性</w>
免疫 力</w>
候车 室</w>
保 外就医</w>
休 庭</w>
伊斯 兰</w>
仁 爱礁</w>
亳 州市</w>
丹 尼
不 胜
不 离
下 岗</w>
一 家人</w>
一 亿</w>
m e</w>
i c</w>
S ec
Pl us</w>
LG D</w>
50 -
4. 6</w>
4. 0</w>
3 C</w>
2. 5亿</w>
196 0年</w>
195 2年</w>
194 0年</w>
0. 9
0. 6</w>
.cn /
１０ 日</w>
龙 泉</w>
黑 洞</w>
风 电</w>
雪 糕</w>
钉 子
都 讯</w>
贝 里</w>
见 闻</w>
西 克</w>
蜡 烛</w>
脱 身</w>
胡 彦
考 评</w>
翻 译
综合 体</w>
纪 要</w>
筛 查</w>
空 置</w>
示 弱</w>
百 色</w>
疙 瘩</w>
理 查
焦作 市</w>
演 艺
演 戏</w>
港 澳</w>
温 格</w>
混 淆</w>
津 县</w>
洗手 液</w>
水 车</w>
水 枪</w>
气 垫</w>
毅 清</w>
段 子</w>
欧联 杯</w>
案 后</w>
桂 花</w>
林 红</w>
杨 建
李 宏亮</w>
权 属</w>
朱 顺忠</w>
替补 席</w>
曾 祥
暴 行</w>
暗 箱</w>
暂住 证</w>
晋 安区</w>
晋 城市</w>
昆 山市</w>
时 至今日</w>
新 余
文 强</w>
政治 处</w>
攀枝 花</w>
拉 基
打 零工</w>
战 果</w>
悲 惨</w>
悔 恨</w>
恶 搞</w>
怀 着</w>
快 步</w>
徐 钢</w>
张 亮</w>
开 拍</w>
床 铺</w>
并 行</w>
巴洛 特利</w>
差 异化</w>
左 臂</w>
工 艺
崩 盘</w>
小 健</w>
家 政</w>
实 事</w>
安 危</w>
好 奇
奕 迅</w>
失 踪
央 广</w>
天 赋</w>
外 卖</w>
夏 普</w>
复 原</w>
壁 市</w>
墨尔 本</w>
圣 地</w>
吞 噬</w>
后 院</w>
可 见
发 行人</w>
南 德斯</w>
卖 淫
劈 腿</w>
刘 吉
分 段</w>
党 总支</w>
倩 倩</w>
侵 入</w>
余 地</w>
任 天堂</w>
交易 额</w>
交 战</w>
亚历 山
乌拉 圭</w>
主 页</w>
主 营</w>
中文 网</w>
中 游</w>
三门 峡市</w>
一 中院</w>
er e</w>
e g
ati on
SC I</w>
C C
A T</w>
8 6.
4. 4</w>
3. 7</w>
20 5</w>
12 7</w>
11 8.
04 :
0 3月</w>
鞍 钢</w>
雨 衣</w>
集 群</w>
隐 身</w>
陈 妈</w>
阿 房
阿 兰</w>
镇 市</w>
金正 日</w>
金 刚</w>
迪 克</w>
违 停</w>
足 球队</w>
资 管</w>
贾 某</w>
贝 克</w>
谁 家</w>
诉 说</w>
设计 院</w>
警 卫</w>
装 饰
血 腥</w>
融 化</w>
蓬 安县</w>
落 成</w>
茶 楼</w>
花 市</w>
脱 手</w>
胡 亮</w>
肆 意</w>
老 城</w>
老 三</w>
罂 粟
纺 织
紧 缺</w>
第 79</w>
第 60</w>
窑 洞</w>
社 团</w>
硫 酸</w>
相 仿</w>
甲 板</w>
用 语</w>
生物 学</w>
珍珠 港</w>
玉 石</w>
狠 心</w>
演 技</w>
滞 纳金</w>
温 岭市</w>
淘 汰
浮 尸</w>
泽 尔</w>
沙 尔
沉 痛</w>
水 路</w>
梦 幻</w>
标 车</w>
杨 杰</w>
李 威</w>
李 伟</w>
本 子</w>
映 象网</w>
整 数</w>
放 任</w>
收 留</w>
擦 拭</w>
摄 南都</w>
搞 笑</w>
推 搡</w>
挺 进</w>
拐 骗</w>
抚养 权</w>
投 注</w>
我 州</w>
惊 魂</w>
怪 圈</w>
征 兵</w>
当 兵</w>
张 扬</w>
平 阳县</w>
小 兵</w>
小 儿</w>
宇 航员</w>
学 部</w>
学 区</w>
失 衡</w>
均 匀</w>
场 镇</w>
固 始县</w>
哨 兵</w>
吴 建平</w>
吃 苦</w>
发行 价</w>
原 子弹</w>
劣 势</w>
初 恋</w>
击 机</w>
冷 汗</w>
养 家</w>
全 家
入 驻</w>
保质 期</w>
会 处</w>
伊 朗
任 制</w>
互 利</w>
云 寺</w>
乡 下</w>
中 卫
世 俱杯</w>
一 词</w>
ra n
cai xin
a o
Phon e</w>
P la
H ol
Fit bit</w>
Ch ri
B el
B I
7 3.
5 点半</w>
1. 6%</w>
黎 源
黎源 之声</w>
麻 木</w>
鸟 巢</w>
鲁 山县</w>
高晓 松</w>
马丁 内斯</w>
飞 过</w>
颜 妮</w>
院 区</w>
销售 量</w>
钉子 户</w>
退 伍</w>
跳 槽</w>
跆 拳
超 标准</w>
赔 率</w>
赎 回</w>
象 山</w>
该 款</w>
视 听</w>
行政 村</w>
行 者</w>
葬 费</w>
菜 地</w>
荧 屏</w>
英 拉</w>
自 贡
背 离</w>
老 阮</w>
经济 师</w>
第 78</w>
第 75</w>
窘 境</w>
祖 坟</w>
短 裙</w>
着 落</w>
皮尔 洛</w>
疗 程</w>
番禺 区</w>
电 磁</w>
现 存</w>
王大 雷</w>
狮 子
照 射</w>
热那 亚</w>
热 播</w>
湖 水</w>
渡 船</w>
涉 恐</w>
浴 场</w>
泄 愤</w>
汤 某</w>
水 桶</w>
毛 正
桌 面</w>
格 拉斯</w>
杨 军</w>
李 丽</w>
接 班人</w>
拍 价</w>
扬长 而去</w>
扫 黄
慑 力</w>
惊 奇</w>
念 叨</w>
必 要性</w>
徐 悲鸿</w>
张 秀
开 价</w>
序 列</w>
庄 乡</w>
干 爹</w>
巴 中市</w>
山 腰</w>
尼亚 州</w>
小笼 包</w>
小 莉</w>
小 云</w>
宴 会</w>
宣传 处</w>
契 奇</w>
天 真</w>
大 冶</w>
外 边</w>
夕 夜</w>
城关 区</w>
城 内</w>
地 标</w>
国 金</w>
回 击</w>
和 园</w>
呼吸 机</w>
取 暖</w>
发 扬</w>
双 城</w>
参 军</w>
卡西 利亚斯</w>
卡 巴
刘益 谦</w>
刘 老根</w>
刑 责</w>
凉 山州</w>
入 者</w>
光 电</w>
修 养</w>
信 赖</w>
信 莲</w>
侦 探</w>
伊 始</w>
以 待</w>
事 事</w>
串 通</w>
中 线</w>
中 大</w>
中 南海</w>
专卖 店</w>
万 庆良</w>
↓ ↓
s p
ji ef
jief ang
jiefang daily</w>
SO HO</w>
PS L</w>
L V</w>
HO MS</w>
CB D</w>
A d
9 00万</w>
7- 0</w>
6- 8</w>
4 200</w>
4 2.
19 0</w>
16 0万</w>
15 1</w>
４ ０</w>
２ ５日</w>
鼎 信</w>
默 契</w>
鸭 子</w>
马布 里</w>
马尼 拉</w>
马 斯
预 先</w>
顺 藤
顺藤 摸
顺藤摸 瓜</w>
雅 加
降 职</w>
防盗 门</w>
门 镇</w>
镜 报</w>
重 离子</w>
责 怪</w>
贝 尼
评 测</w>
要 紧</w>
芭 比</w>
芙蓉 区</w>
艳 兵</w>
维 拉蒂</w>
给 力</w>
终 点站</w>
纸 张</w>
精 灵</w>
立 新</w>
祭 祀</w>
社保 局</w>
皮 包</w>
王 芳</w>
王 宇
狭 小</w>
物 理
牌 匾</w>
熄 灭</w>
热 销</w>
濮 阳市</w>
流 动
法制 办</w>
沃 德</w>
水 表</w>
毅 民</w>
此 间</w>
歌 词</w>
橡 皮
橘 子</w>
梁 毅民</w>
查 扣</w>
李 学
李 丹</w>
景 山</w>
明 令</w>
无 需</w>
无 恙</w>
数 值</w>
救 救</w>
敌 方</w>
收银 员</w>
提 早</w>
拟 任</w>
拉 诺</w>
拉 客</w>
报 案人</w>
承 宪</w>
打 猎</w>
房 县</w>
戒 备</w>
憧 憬</w>
念 书</w>
开 考</w>
开 外</w>
底 气</w>
年 前</w>
平 区</w>
常 理</w>
帕 森
巴塔 拉</w>
岁 数</w>
小 浩</w>
宣 部</w>
安 吉
孟 某</w>
娄 底
委托 书</w>
外 流</w>
士 官</w>
塔 纳</w>
埋 伏</w>
土 家族</w>
喜 马拉
味 儿</w>
含 义</w>
可 想
句 号</w>
发 荣</w>
劳 作</w>
加 码</w>
前 辈</w>
冲击 力</w>
养 父母</w>
入 球</w>
借 壳</w>
俘 虏</w>
份 子钱</w>
付 清</w>
从 天
亲 笔</w>
亟 待</w>
二 炮</w>
举 牌</w>
主 队</w>
主 审</w>
为人 知</w>
中华 区</w>
不 下</w>
一 路上</w>
a f
a d</w>
A C
6- 4</w>
6- 3</w>
56 分</w>
3. 1</w>
3 12</w>
27 00</w>
2015-08-0 7</w>
16 00万</w>
13 5</w>
- 9</w>
龙 舟</w>
龙 卷
顶 盒</w>
零售 店</w>
雨 花
阿克 苏</w>
阿 玲</w>
阿 巴
阳 宝华</w>
酒 味</w>
送 检</w>
转 而</w>
路 某</w>
赵 某
诺 贝尔</w>
诊 室</w>
讲 师</w>
讲 台</w>
警 醒</w>
观 音</w>
被告 席</w>
衬 衣</w>
营 地</w>
莉 亚</w>
英 皇</w>
苦 战</w>
肯尼 迪</w>
股 长</w>
缉 私</w>
维 维</w>
维 系</w>
红 梅</w>
糖 果</w>
竞 拍</w>
穿 梭</w>
秦 岭</w>
祖 师</w>
画 像</w>
电讯 报</w>
用 率</w>
王 云
狂 欢</w>
灵 感</w>
潇 霆</w>
湖 边</w>
温 网</w>
海 鑫</w>
池 明</w>
殿 堂</w>
格 策</w>
校 领导</w>
枪 械</w>
构 造</w>
杨德 龙</w>
杨 智</w>
李 超</w>
李 成
杂 草</w>
机 翼</w>
有 线</w>
旅游 团</w>
新 手</w>
新 光</w>
斯蒂 芬</w>
文 蔚</w>
敬 畏</w>
改 动</w>
控 辩</w>
招 致</w>
拉 登</w>
抵 触</w>
手 环</w>
手 架</w>
战 火</w>
恩 人</w>
怨 言</w>
思 念</w>
彭 丽媛</w>
引人 注目</w>
开 导</w>
建设 部</w>
度假 区</w>
广播 网</w>
广 发</w>
幸 免</w>
年 长</w>
巨 无
州 县</w>
岭 南</w>
寄 养</w>
家 具
宣 誓</w>
宝 洁</w>
孤儿 院</w>
孝 感
子 岛</w>
奇 特</w>
头 骨</w>
大 白</w>
大 好</w>
夜 店</w>
埃尔 南德斯</w>
坪 山</w>
圣 军</w>
图 雷</w>
国泰 君安</w>
国 栋</w>
回报 率</w>
和 睦</w>
吕 新华</w>
吊 射</w>
可想 而知</w>
参 保人</w>
华龙 网</w>
千 金</w>
募 资</w>
创 可贴</w>
分 列</w>
内 疚</w>
内 切</w>
关 联
免 予</w>
体 貌</w>
体 彩</w>
代 言人</w>
亲 热</w>
五 金</w>
乖 乖</w>
东北 人</w>
不 经
不 省
三 湘</w>
一 空</w>
一 万
V i
T ou
I n</w>
B e
8 3
7 4.
5. 8
5. 2</w>
4 8万</w>
17 8</w>
14 7</w>
12 1</w>
08- 11</w>
- 30</w>
２ ７日</w>
马 云</w>
食 药</w>
音 频</w>
非 正式</w>
雨 润</w>
雅加 达</w>
障碍 物</w>
阿力木 ·艾
阿 芳</w>
野 县</w>
重 演</w>
转 述</w>
跨 界</w>
赌 博
诧 异</w>
警 棍</w>
装 甲
被 拘</w>
补 给</w>
落 选</w>
莱 万
航空 器</w>
腾 格里</w>
肛 门</w>
老 虎
罗 湖区</w>
罗 伊斯</w>
纵 深</w>
糊 糊</w>
精 细</w>
第 88</w>
空 客</w>
税 务局</w>
福 喜</w>
着陆 器</w>
直 通</w>
盘 问</w>
监 利县</w>
的 士</w>
男 子
电 车</w>
电 投</w>
王老 吉</w>
王 庆
漩 涡</w>
河 南人</w>
江 北区</w>
汉 林</w>
汉 斯</w>
气 势</w>
毛正 旭</w>
比 率</w>
毁 灭</w>
款 式</w>
梅 华</w>
标 杆</w>
柱 子</w>
杜 文
暴 恐
明 清</w>
日 经</w>
数 字
敌 后</w>
攻 读</w>
改 嫁</w>
操 心</w>
摩根 士
摩根士 丹
搬 离</w>
搜 狗</w>
揭 示</w>
掏 钱</w>
掌 管</w>
抵 债</w>
抱 养</w>
执行 局</w>
执 着</w>
打 官司</w>
戈 登</w>
志 忠</w>
年 化</w>
尾 气</w>
尖 锐</w>
小 海</w>
小 夏</w>
宴 席</w>
审 计局</w>
宋 承宪</w>
安 理会</w>
存 疑</w>
委 任</w>
奔 走</w>
太 极
大 通</w>
大 圣</w>
夜 色</w>
多 媒体</w>
壮 观</w>
在 世</w>
圆 通</w>
哺乳 期</w>
咸 宁市</w>
告 状</w>
吴 春明</w>
司法 部门</w>
反 常</w>
卫 民</w>
博 览会</w>
别 墅
准 许</w>
冰 山</w>
冯绍 峰</w>
兰 某</w>
公安 人员</w>
公 用
免 签</w>
保守 党</w>
乐 团</w>
中小 学生</w>
中 青年</w>
严 发荣</w>
东 江</w>
业 委会</w>
一 不
th epaper
thepaper .cn</w>
St ore</w>
C ap
A -
7- 8</w>
37 分</w>
36 亿</w>
2 11</w>
２ ３日</w>
２ １日</w>
１ 万</w>
黄 晓
黄 山市</w>
高 劲松</w>
驶 离</w>
食用 油</w>
颤 抖</w>
限 量</w>
陆 空</w>
阿房 宫</w>
阿 莱
躲 藏</w>
贸 然</w>
败 诉</w>
角 膜</w>
要 案</w>
西 装</w>
裂 伤</w>
蜷 缩</w>
著 作</w>
莫 某</w>
荣 耀</w>
茶 馆</w>
英 特尔</w>
苏 北</w>
花 木兰</w>
自然 村</w>
腿 脚</w>
肩 负</w>
肌 腱</w>
老 宅</w>
翻 拍</w>
罗 比尼奥</w>
第二 百
第 73</w>
第 47</w>
第 40</w>
第 36</w>
秦 城</w>
知 青</w>
看 成</w>
电 磁
王 磊</w>
牛 肉
爽 快</w>
照 样</w>
灭 绝</w>
湖 人队</w>
海 尔</w>
沃 特
毛 某</w>
柳 艳兵</w>
林 某
来 宾</w>
条 文</w>
月 饼</w>
曹 妃
暴 富</w>
方 设法</w>
政 坛</w>
摘 除</w>
提供 者</w>
挽 留</w>
想 方设法</w>
恩施 州</w>
志愿 军</w>
德拉 季奇</w>
徐 绍
弗 雷
巨无 霸</w>
工 龄</w>
尤 纳斯</w>
尘埃 落定</w>
宾 汉姆</w>
家 镇</w>
审 团</w>
宝 石</w>
定 格</w>
孙 慧
如 意</w>
如 厕</w>
好好 的</w>
天文 学家</w>
地 亚</w>
国 军</w>
四合 院</w>
发 问</w>
卡纳 瓦罗</w>
博 阿
南安 普
单 子</w>
劣 质</w>
加 纳</w>
冲 破</w>
内 蒙</w>
内 江市</w>
党 察看</w>
偿 付</w>
保险 杠</w>
侄 儿</w>
何 在</w>
仁 寿县</w>
人 墙</w>
人 人
亲戚 家</w>
争 夺
为数 不多</w>
不省 人事</w>
w ind</w>
b ps</w>
TC L</w>
A ir
99. 79</w>
8 4.
6 8万</w>
5 5万</w>
3- 5</w>
26 00</w>
19 亿</w>
16 分</w>
10 7
1. 8%</w>
８ 年</w>
２ ６日</w>
黎 明华</w>
骆 驼</w>
颜 某</w>
顺 德
青 藏</w>
雷 内</w>
雇 用</w>
雁 塔</w>
隐 蔽
隆 美尔</w>
阿 强</w>
闪 婚</w>
钟 宇军</w>
金 英权</w>
邹 斌</w>
遗 传
通 化</w>
过 滤</w>
迁 徙</w>
购 进</w>
责任 人员</w>
调 派</w>
该 笔</w>
识 字</w>
评 分</w>
警 种</w>
解 脱</w>
西 街</w>
蟋 蟀</w>
虎 妈</w>
蒂 姆</w>
菲 尔</w>
苍 南县</w>
自 强</w>
胡晓 义</w>
老 旧</w>
缘 分</w>
纵 身</w>
红 嘴
第 59</w>
第 56</w>
窗 帘</w>
租 赁
秀 华</w>
离 婚证</w>
福 克斯</w>
省 军区</w>
病 菌</w>
留 党察看</w>
瑞 鹏</w>
玻璃 窗</w>
特种 部队</w>
煤 化</w>
火 案</w>
润 龙</w>
海 战</w>
波 士
沙 特
沉 睡</w>
水晶 宫</w>
气 功</w>
民 心</w>
欧 丽
欧丽 志</w>
欠 缺</w>
格 尔
林 其
杨 维
杨 玉
月 嫂</w>
昏 倒</w>
明 朝</w>
无 端</w>
文 林</w>
收费 员</w>
报 备</w>
护士 长</w>
所有 者</w>
慰问 金</w>
情 夫</w>
总 长</w>
张 林</w>
废 止</w>
布鲁 尔</w>
市 政协</w>
岁 钱</w>
山 崖</w>
少 华</w>
小 板</w>
封 杀</w>
宽 大</w>
定 时</w>
完 备</w>
学 区
孕 期</w>
好 日子</w>
奖 章</w>
太 湖</w>
天 皇</w>
外 貌</w>
复 合
埃 里克</w>
地 税</w>
哥 斯达
告 知
名 者</w>
发审 委</w>
反 垄断法</w>
参 赛
参 股</w>
原 名</w>
压 岁钱</w>
厂 方</w>
卫生 厅</w>
南 亚</w>
单 身
升 格</w>
十 五
务 省</w>
加 热</w>
办公 区</w>
分 社</w>
凤 英</w>
减 税</w>
农 业厅</w>
养 鸡场</w>
兴 润</w>
共同 体</w>
兰 卡</w>
六盘 水市</w>
停 机
价 比</w>
他 国</w>
仇 恨</w>
云 江</w>
之 年</w>
专业 性</w>
不得 了</w>
不 管
七八 十</w>
一 身</w>
www. thepaper.cn</w>
ne ws
f or
f inance</w>
caixin finance</w>
St e
F i
AD S</w>
9 0-
8. 1</w>
50 1</w>
39 00</w>
3 6万</w>
17 5</w>
.. ....</w>
黄岩 岛</w>
黄 秋</w>
魔 术
骗 人</w>
驾 考</w>
马 力</w>
预 产期</w>
青 岛
陈 伟
阿斯 报</w>
阴 阳</w>
郭 宜
邺 区</w>
路 由
谷 俊
谢 霆锋</w>
谋 杀</w>
解 体</w>
见 不
要 约</w>
裴 某</w>
蝴 蝶</w>
蛮 子</w>
菏泽 市</w>
莱 特</w>
莱 万</w>
英 军</w>
航 拍</w>
脑 海</w>
胚 胎</w>
肩 部</w>
耿 晓峰</w>
羊 肉</w>
缆 线</w>
稀 奇</w>
科 瓦
神 圣</w>
睡 衣</w>
登 台</w>
画 画</w>
王 力
猎 人</w>
狂 犬
物业 费</w>
片 酬</w>
灵 顿</w>
火 烧</w>
渝 北区</w>
淘汰 赛</w>
注 资</w>
法 规
河 口</w>
江 阴</w>
汉 代</w>
求 学</w>
水 潭</w>
歪 曲</w>
核 发</w>
本 色</w>
服务 站</w>
普 降</w>
